{
  "version": "1.0",
  "truncation": null,
  "padding": null,
  "added_tokens": [
    {
      "id": 0,
      "content": "[PAD]",
      "single_word": false,
      "lstrip": false,
      "rstrip": false,
      "normalized": false,
      "special": true
    },
    {
      "id": 1,
      "content": "[UNK]",
      "single_word": false,
      "lstrip": false,
      "rstrip": false,
      "normalized": false,
      "special": true
    },
    {
      "id": 2,
      "content": "[BOS]",
      "single_word": false,
      "lstrip": false,
      "rstrip": false,
      "normalized": false,
      "special": true
    },
    {
      "id": 3,
      "content": "[EOS]",
      "single_word": false,
      "lstrip": false,
      "rstrip": false,
      "normalized": false,
      "special": true
    }
  ],
  "normalizer": null,
  "pre_tokenizer": {
    "type": "Whitespace"
  },
  "post_processor": null,
  "decoder": null,
  "model": {
    "type": "BPE",
    "dropout": null,
    "unk_token": "[UNK]",
    "continuing_subword_prefix": null,
    "end_of_word_suffix": null,
    "fuse_unk": false,
    "byte_fallback": false,
    "ignore_merges": false,
    "vocab": {
      "[PAD]": 0,
      "[UNK]": 1,
      "[BOS]": 2,
      "[EOS]": 3,
      ",": 4,
      "-": 5,
      ".": 6,
      "0": 7,
      "1": 8,
      "2": 9,
      "3": 10,
      "4": 11,
      "5": 12,
      "6": 13,
      "7": 14,
      "8": 15,
      "9": 16,
      "?": 17,
      "A": 18,
      "B": 19,
      "C": 20,
      "D": 21,
      "E": 22,
      "F": 23,
      "G": 24,
      "H": 25,
      "I": 26,
      "J": 27,
      "K": 28,
      "L": 29,
      "M": 30,
      "N": 31,
      "O": 32,
      "P": 33,
      "R": 34,
      "S": 35,
      "T": 36,
      "U": 37,
      "W": 38,
      "Y": 39,
      "Z": 40,
      "_": 41,
      "a": 42,
      "b": 43,
      "c": 44,
      "d": 45,
      "e": 46,
      "f": 47,
      "g": 48,
      "h": 49,
      "i": 50,
      "j": 51,
      "k": 52,
      "l": 53,
      "m": 54,
      "n": 55,
      "o": 56,
      "p": 57,
      "r": 58,
      "s": 59,
      "t": 60,
      "u": 61,
      "v": 62,
      "w": 63,
      "x": 64,
      "y": 65,
      "z": 66,
      "an": 67,
      "ar": 68,
      "er": 69,
      "ah": 70,
      "ia": 71,
      "al": 72,
      "as": 73,
      "ang": 74,
      "pa": 75,
      "un": 76,
      "di": 77,
      "na": 78,
      "unt": 79,
      "de": 80,
      "uk": 81,
      "Us": 82,
      "ode": 83,
      "rah": 84,
      "er_": 85,
      "asia": 86,
      "untuk": 87,
      "User_": 88,
      "rahasia": 89,
      "ari": 90,
      "Apa": 91,
      "ad": 92,
      "ma": 93,
      "be": 94,
      "alah": 95,
      "adalah": 96,
      "dan": 97,
      "en": 98,
      "ber": 99,
      "or": 100,
      "in": 101,
      "li": 102,
      "ja": 103,
      "dari": 104,
      "orang": 105,
      "on": 106,
      "war": 107,
      "ta": 108,
      "yang": 109,
      "se": 110,
      "dibe": 111,
      "ir": 112,
      "nama": 113,
      "Kode": 114,
      "kode": 115,
      "il": 116,
      "kan": 117,
      "ini": 118,
      "ap": 119,
      "mo": 120,
      "sar": 121,
      "warna": 122,
      "bil": 123,
      "mobil": 124,
      "pe": 125,
      "eng": 126,
      "ker": 127,
      "kerja": 128,
      "lah": 129,
      "dibesar": 130,
      "lahir": 131,
      "dibesarkan": 132,
      "kap": 133,
      "leng": 134,
      "asal": 135,
      "berasal": 136,
      "lengkap": 137,
      "ara": 138,
      "ya": 139,
      "ra": 140,
      "man": 141,
      "ko": 142,
      "araan": 143,
      "ro": 144,
      "Sia": 145,
      "Siapa": 146,
      "em": 147,
      "ut": 148,
      "ai": 149,
      "ion": 150,
      "Di": 151,
      "ba": 152,
      "haraan": 153,
      "liharaan": 154,
      "peliharaan": 155,
      "mem": 156,
      "es": 157,
      "hari": 158,
      "berwarna": 159,
      "ak": 160,
      "fes": 161,
      "gai": 162,
      "pro": 163,
      "bekerja": 164,
      "seorang": 165,
      "seba": 166,
      "pekerja": 167,
      "ional": 168,
      "fesional": 169,
      "profesional": 170,
      "sebagai": 171,
      "pekerjaan": 172,
      "mana": 173,
      "kota": 174,
      "wan": 175,
      "Na": 176,
      "dia": 177,
      "Nama": 178,
      "us": 179,
      "da": 180,
      "ri": 181,
      "ur": 182,
      "it": 183,
      "end": 184,
      "at": 185,
      "udi": 186,
      "Put": 187,
      "Ni": 188,
      "bar": 189,
      "baru": 190,
      "im": 191,
      "ki": 192,
      "ek": 193,
      "mer": 194,
      "Hi": 195,
      "et": 196,
      "De": 197,
      "yu": 198,
      "Ri": 199,
      "ono": 200,
      "eg": 201,
      "Wi": 202,
      "tama": 203,
      "ili": 204,
      "diber": 205,
      "memili": 206,
      "diberi": 207,
      "memiliki": 208,
      "Kend": 209,
      "sehari": 210,
      "merek": 211,
      "Kendaraan": 212,
      "aja": 213,
      "nan": 214,
      "saja": 215,
      "beli": 216,
      "warnan": 217,
      "dibeli": 218,
      "membeli": 219,
      "warnanya": 220,
      "User_1": 221,
      "User_9": 222,
      "User_3": 223,
      "User_6": 224,
      "User_2": 225,
      "User_8": 226,
      "User_4": 227,
      "User_7": 228,
      "User_5": 229,
      "Ma": 230,
      "arta": 231,
      "el": 232,
      "Mer": 233,
      "Ku": 234,
      "An": 235,
      "Ha": 236,
      "Ban": 237,
      "Pra": 238,
      "ug": 239,
      "iman": 240,
      "bu": 241,
      "ing": 242,
      "mas": 243,
      "una": 244,
      "Su": 245,
      "Merah": 246,
      "Rudi": 247,
      "Lia": 248,
      "Sit": 249,
      "Siti": 250,
      "Rini": 251,
      "ung": 252,
      "Ari": 253,
      "Aris": 254,
      "Don": 255,
      "Doni": 256,
      "dy": 257,
      "Dedy": 258,
      "44": 259,
      "Ag": 260,
      "Agus": 261,
      "Ba": 262,
      "Budi": 263,
      "Bayu": 264,
      "Nina": 265,
      "Eko": 266,
      "Andi": 267,
      "Meg": 268,
      "Mega": 269,
      "Nita": 270,
      "Sari": 271,
      "Iwan": 272,
      "Maya": 273,
      "92": 274,
      "Dian": 275,
      "Ayu": 276,
      "wi": 277,
      "Dewi": 278,
      "Fit": 279,
      "Rio": 280,
      "Fitri": 281,
      "Pur": 282,
      "Purnama": 283,
      "Tono": 284,
      "yat": 285,
      "dayat": 286,
      "Hidayat": 287,
      "Nas": 288,
      "ution": 289,
      "Nasution": 290,
      "Rina": 291,
      "Hal": 292,
      "Halim": 293,
      "Jo": 294,
      "Joko": 295,
      "Wat": 296,
      "Wati": 297,
      "90": 298,
      "Hadi": 299,
      "bo": 300,
      "wo": 301,
      "Wibo": 302,
      "Wibowo": 303,
      "Putri": 304,
      "Sur": 305,
      "yono": 306,
      "Suryono": 307,
      "Sap": 308,
      "utra": 309,
      "Saputra": 310,
      "jaya": 311,
      "Wijaya": 312,
      "Putra": 313,
      "Set": 314,
      "iawan": 315,
      "Setiawan": 316,
      "52": 317,
      "Lim": 318,
      "58": 319,
      "Hend": 320,
      "Hendra": 321,
      "Rah": 322,
      "San": 323,
      "os": 324,
      "tos": 325,
      "Rahman": 326,
      "Santos": 327,
      "Santoso": 328,
      "66": 329,
      "50": 330,
      "73": 331,
      "Pratama": 332,
      "Sir": 333,
      "Utama": 334,
      "egar": 335,
      "Siregar": 336,
      "Siman": 337,
      "junt": 338,
      "Simanjunt": 339,
      "Simanjuntak": 340,
      "Nug": 341,
      "ho": 342,
      "roho": 343,
      "Nugroho": 344,
      "91": 345,
      "Kus": 346,
      "uma": 347,
      "Kusuma": 348,
      "51": 349,
      "72": 350,
      "98": 351,
      "su": 352,
      "93": 353,
      "Guna": 354,
      "Gunawan": 355,
      "53": 356,
      "78": 357,
      "70": 358,
      "41": 359,
      "71": 360,
      "42": 361,
      "48": 362,
      "62": 363,
      "ok": 364,
      "43": 365,
      "68": 366,
      "60": 367,
      "any": 368,
      "40": 369,
      "61": 370,
      "Ch": 371,
      "63": 372,
      "let": 373,
      "ter": 374,
      "pang": 375,
      "Kupang": 376,
      "Pe": 377,
      "jar": 378,
      "kanbaru": 379,
      "Banjar": 380,
      "masin": 381,
      "Pekanbaru": 382,
      "Banjarmasin": 383,
      "Pad": 384,
      "dung": 385,
      "Bandung": 386,
      "Padang": 387,
      "Pal": 388,
      "bang": 389,
      "embang": 390,
      "Palembang": 391,
      "Pon": 392,
      "ian": 393,
      "tian": 394,
      "Pontian": 395,
      "Pontianak": 396,
      "Dai": 397,
      "Bal": 398,
      "Le": 399,
      "Yo": 400,
      "gya": 401,
      "ik": 402,
      "karta": 403,
      "pan": 404,
      "papan": 405,
      "Balik": 406,
      "Yogya": 407,
      "Balikpapan": 408,
      "Yogyakarta": 409,
      "Den": 410,
      "pas": 411,
      "Denpas": 412,
      "Denpasar": 413,
      "28": 414,
      "lis": 415,
      "Me": 416,
      "Medan": 417,
      "Mal": 418,
      "Malang": 419,
      "33": 420,
      "hi": 421,
      "Sem": 422,
      "arang": 423,
      "Semarang": 424,
      "Man": 425,
      "ado": 426,
      "Manado": 427,
      "Pen": 428,
      "Mak": 429,
      "assar": 430,
      "Makassar": 431,
      "Jak": 432,
      "Mat": 433,
      "aram": 434,
      "Jakarta": 435,
      "Mataram": 436,
      "Sa": 437,
      "mari": 438,
      "nda": 439,
      "Samari": 440,
      "Samarinda": 441,
      "95": 442,
      "10": 443,
      "Am": 444,
      "bon": 445,
      "Ambon": 446,
      "97": 447,
      "20": 448,
      "raba": 449,
      "Suraba": 450,
      "Surabaya": 451,
      "18": 452,
      "65": 453,
      "45": 454,
      "23": 455,
      "47": 456,
      "67": 457,
      "13": 458,
      "80": 459,
      "Bir": 460,
      "Biru": 461,
      "Per": 462,
      "Perak": 463,
      "ih": 464,
      "Putih": 465,
      "jau": 466,
      "Hijau": 467,
      "tam": 468,
      "Hitam": 469,
      "Kun": 470,
      "Kuning": 471,
      "Abu": 472,
      "abu": 473,
      "99": 474,
      "Emas": 475,
      "Or": 476,
      "anye": 477,
      "Oranye": 478,
      "Un": 479,
      "gu": 480,
      "Ungu": 481,
      "Cok": 482,
      "elat": 483,
      "Cokelat": 484,
      "oc": 485,
      "22": 486,
      "Mu": 487,
      "Muda": 488,
      "88": 489,
      "ilo": 490,
      "75": 491,
      "11": 492,
      "30": 493,
      "ela": 494,
      "To": 495,
      "ota": 496,
      "yota": 497,
      "Toyota": 498,
      "49": 499,
      "55": 500,
      "Hy": 501,
      "dai": 502,
      "undai": 503,
      "Hyundai": 504,
      "Audi": 505,
      "xus": 506,
      "Lexus": 507,
      "For": 508,
      "Ford": 509,
      "ev": 510,
      "rolet": 511,
      "Chev": 512,
      "Chevrolet": 513,
      "Kia": 514,
      "Mit": 515,
      "bi": 516,
      "shi": 517,
      "subi": 518,
      "Mitsubi": 519,
      "Mitsubishi": 520,
      "ss": 521,
      "Niss": 522,
      "Nissan": 523,
      "Ben": 524,
      "ce": 525,
      "zda": 526,
      "des": 527,
      "Mazda": 528,
      "Merce": 529,
      "Benz": 530,
      "Mercedes": 531,
      "Hon": 532,
      "Honda": 533,
      "69": 534,
      "hat": 535,
      "Daihat": 536,
      "Daihatsu": 537,
      "zuk": 538,
      "Suzuk": 539,
      "Suzuki": 540,
      "38": 541,
      "77": 542,
      "BM": 543,
      "BMW": 544,
      "21": 545,
      "64": 546,
      "81": 547,
      "94": 548,
      "57": 549,
      "31": 550,
      "82": 551,
      "Bur": 552,
      "Burung": 553,
      "ms": 554,
      "Hams": 555,
      "Hamster": 556,
      "Aya": 557,
      "Ayam": 558,
      "Be": 559,
      "bek": 560,
      "Bebek": 561,
      "Mus": 562,
      "Musang": 563,
      "46": 564,
      "Ikan": 565,
      "ku": 566,
      "Kura": 567,
      "kura": 568,
      "jing": 569,
      "Anjing": 570,
      "32": 571,
      "Kel": 572,
      "ci": 573,
      "cing": 574,
      "inci": 575,
      "Kucing": 576,
      "Kelinci": 577,
      "12": 578,
      "59": 579,
      "79": 580,
      "54": 581,
      "mug": 582,
      "Pramug": 583,
      "Pramugari": 584,
      "Ar": 585,
      "sit": 586,
      "Arsit": 587,
      "Arsitek": 588,
      "Ak": 589,
      "Dok": 590,
      "tor": 591,
      "Aktor": 592,
      "Dokter": 593,
      "Po": 594,
      "lisi": 595,
      "Polisi": 596,
      "In": 597,
      "Pilo": 598,
      "sin": 599,
      "yur": 600,
      "Insin": 601,
      "Pilot": 602,
      "Insinyur": 603,
      "Des": 604,
      "ain": 605,
      "Desain": 606,
      "Desainer": 607,
      "83": 608,
      "Ten": 609,
      "tara": 610,
      "Tentara": 611,
      "Sen": 612,
      "Seniman": 613,
      "Pro": 614,
      "gra": 615,
      "mmer": 616,
      "Progra": 617,
      "Programmer": 618,
      "56": 619,
      "76": 620,
      "yany": 621,
      "Penyany": 622,
      "Penyanyi": 623,
      "Pet": 624,
      "ani": 625,
      "Petani": 626,
      "Nela": 627,
      "yan": 628,
      "Nelayan": 629,
      "00": 630,
      "Peng": 631,
      "aha": 632,
      "usaha": 633,
      "Pengusaha": 634,
      "74": 635,
      "ulis": 636,
      "Penulis": 637,
      "Ko": 638,
      "Koki": 639,
      "Gur": 640,
      "Warta": 641,
      "Guru": 642,
      "Wartawan": 643,
      "At": 644,
      "Atlet": 645,
      "29": 646,
      "39": 647,
      "89": 648,
      "19": 649,
      "15": 650,
      "87": 651,
      "16": 652,
      "37": 653,
      "85": 654,
      "25": 655,
      "36": 656,
      "17": 657,
      "84": 658,
      "35": 659,
      "26": 660,
      "27": 661,
      "24": 662,
      "96": 663,
      "34": 664,
      "14": 665,
      "86": 666,
      "09": 667,
      "02": 668,
      "03": 669,
      "08": 670,
      "04": 671,
      "01": 672,
      "07": 673,
      "06": 674,
      "05": 675,
      "co": 676,
      "ico": 677,
      "Chico": 678,
      "sy": 679,
      "Daisy": 680,
      "Bel": 681,
      "Ne": 682,
      "la": 683,
      "Bella": 684,
      "Nemo": 685,
      "Ki": 686,
      "Kiko": 687,
      "Mo": 688,
      "ll": 689,
      "Moll": 690,
      "Molly": 691,
      "Bu": 692,
      "Bubu": 693,
      "Lu": 694,
      "cy": 695,
      "Lucy": 696,
      "Bela": 697,
      "Luna": 698,
      "Oy": 699,
      "Oyen": 700,
      "Roc": 701,
      "Zor": 702,
      "ky": 703,
      "Rocky": 704,
      "Zorro": 705,
      "arli": 706,
      "Charli": 707,
      "Charlie": 708,
      "Leo": 709,
      "Milo": 710,
      "Sim": 711,
      "Simba": 712,
      "Coc": 713,
      "Coco": 714,
      "Max": 715,
      "Moc": 716,
      "Mochi": 717,
      "508": 718,
      "920": 719,
      "644": 720,
      "651": 721,
      "653": 722,
      "452": 723,
      "580": 724,
      "931": 725,
      "790": 726,
      "700": 727,
      "440": 728,
      "500": 729,
      "520": 730,
      "718": 731,
      "393": 732,
      "792": 733,
      "510": 734,
      "530": 735,
      "710": 736,
      "491": 737,
      "578": 738,
      "678": 739,
      "740": 740,
      "738": 741,
      "531": 742,
      "420": 743,
      "610": 744,
      "278": 745,
      "641": 746,
      "968": 747,
      "711": 748,
      "691": 749,
      "998": 750,
      "723": 751,
      "433": 752,
      "600": 753,
      "458": 754,
      "478": 755,
      "544": 756,
      "563": 757,
      "862": 758,
      "662": 759,
      "503": 760,
      "258": 761,
      "468": 762,
      "590": 763,
      "690": 764,
      "818": 765,
      "730": 766,
      "721": 767,
      "541": 768,
      "693": 769,
      "990": 770,
      "950": 771,
      "511": 772,
      "713": 773,
      "432": 774,
      "463": 775,
      "540": 776,
      "642": 777,
      "763": 778,
      "848": 779,
      "681": 780,
      "191": 781,
      "298": 782,
      "248": 783,
      "378": 784,
      "493": 785,
      "460": 786,
      "558": 787,
      "548": 788,
      "698": 789,
      "648": 790,
      "741": 791,
      "962": 792,
      "668": 793,
      "733": 794,
      "720": 795,
      "708": 796,
      "430": 797,
      "492": 798,
      "592": 799,
      "748": 800,
      "702": 801,
      "620": 802,
      "431": 803,
      "542": 804,
      "652": 805,
      "880": 806,
      "944": 807,
      "911": 808,
      "513": 809,
      "598": 810,
      "640": 811,
      "773": 812,
      "860": 813,
      "930": 814,
      "717": 815,
      "611": 816,
      "977": 817,
      "263": 818,
      "692": 819,
      "791": 820,
      "768": 821,
      "833": 822,
      "User_223": 823,
      "722": 824,
      "933": 825,
      "418": 826,
      "233": 827,
      "218": 828,
      "560": 829,
      "823": 830,
      "948": 831,
      "User_109": 832,
      "501": 833,
      "502": 834,
      "539": 835,
      "163": 836,
      "262": 837,
      "210": 838,
      "318": 839,
      "313": 840,
      "380": 841,
      "466": 842,
      "470": 843,
      "566": 844,
      "673": 845,
      "844": 846,
      "942": 847,
      "User_622": 848,
      "982": 849,
      "141": 850,
      "128": 851,
      "490": 852,
      "752": 853,
      "890": 854,
      "822": 855,
      "978": 856,
      "940": 857,
      "User_520": 858,
      "729": 859,
      "619": 860,
      "251": 861,
      "240": 862,
      "358": 863,
      "473": 864,
      "462": 865,
      "670": 866,
      "778": 867,
      "858": 868,
      "User_104": 869,
      "User_872": 870,
      "665": 871,
      "439": 872,
      "682": 873,
      "457": 874,
      "677": 875,
      "144": 876,
      "152": 877,
      "198": 878,
      "148": 879,
      "390": 880,
      "310": 881,
      "451": 882,
      "User_992": 883,
      "User_997": 884,
      "User_929": 885,
      "User_927": 886,
      "User_238": 887,
      "User_495": 888,
      "User_732": 889,
      "User_776": 890,
      "657": 891,
      "190": 892,
      "142": 893,
      "160": 894,
      "118": 895,
      "291": 896,
      "241": 897,
      "344": 898,
      "348": 899,
      "562": 900,
      "863": 901,
      "958": 902,
      "991": 903,
      "941": 904,
      "963": 905,
      "User_952": 906,
      "User_975": 907,
      "User_996": 908,
      "User_387": 909,
      "User_667": 910,
      "User_823": 911,
      "User_813": 912,
      "User_404": 913,
      "User_539": 914,
      "537": 915,
      "477": 916,
      "158": 917,
      "140": 918,
      "123": 919,
      "292": 920,
      "252": 921,
      "242": 922,
      "220": 923,
      "398": 924,
      "461": 925,
      "552": 926,
      "561": 927,
      "643": 928,
      "766": 929,
      "750": 930,
      "891": 931,
      "841": 932,
      "821": 933,
      "951": 934,
      "970": 935,
      "User_197": 936,
      "User_982": 937,
      "User_330": 938,
      "User_666": 939,
      "User_640": 940,
      "User_614": 941,
      "User_244": 942,
      "User_291": 943,
      "User_241": 944,
      "User_257": 945,
      "User_830": 946,
      "User_597": 947,
      "538": 948,
      "266": 949,
      "320": 950,
      "311": 951,
      "498": 952,
      "770": 953,
      "762": 954,
      "892": 955,
      "820": 956,
      "830": 957,
      "966": 958,
      "972": 959,
      "971": 960,
      "943": 961,
      "User_141": 962,
      "User_195": 963,
      "User_905": 964,
      "User_343": 965,
      "User_394": 966,
      "User_305": 967,
      "User_618": 968,
      "User_450": 969,
      "User_415": 970,
      "User_402": 971,
      "User_791": 972,
      "User_779": 973,
      "User_558": 974,
      "955": 975,
      "192": 976,
      "151": 977,
      "110": 978,
      "351": 979,
      "360": 980,
      "593": 981,
      "570": 982,
      "650": 983,
      "671": 984,
      "647": 985,
      "798": 986,
      "760": 987,
      "873": 988,
      "840": 989,
      "User_172": 990,
      "User_168": 991,
      "User_128": 992,
      "User_133": 993,
      "User_185": 994,
      "User_990": 995,
      "User_955": 996,
      "User_939": 997,
      "User_398": 998,
      "User_335": 999,
      "User_692": 1000,
      "User_636": 1001,
      "User_606": 1002,
      "User_844": 1003,
      "User_436": 1004,
      "User_529": 1005,
      "780": 1006,
      "244": 1007,
      "272": 1008,
      "260": 1009,
      "228": 1010,
      "341": 1011,
      "340": 1012,
      "323": 1013,
      "465": 1014,
      "744": 1015,
      "793": 1016,
      "753": 1017,
      "742": 1018,
      "898": 1019,
      "871": 1020,
      "861": 1021,
      "973": 1022,
      "User_198": 1023,
      "User_964": 1024,
      "User_956": 1025,
      "User_976": 1026,
      "User_391": 1027,
      "User_351": 1028,
      "User_395": 1029,
      "User_376": 1030,
      "User_658": 1031,
      "User_663": 1032,
      "User_602": 1033,
      "User_294": 1034,
      "User_246": 1035,
      "User_219": 1036,
      "User_284": 1037,
      "User_866": 1038,
      "User_833": 1039,
      "User_444": 1040,
      "User_443": 1041,
      "User_454": 1042,
      "User_797": 1043,
      "User_765": 1044,
      "User_528": 1045,
      "User_587": 1046,
      "User_516": 1047,
      "User_526": 1048,
      "680": 1049,
      "150": 1050,
      "170": 1051,
      "120": 1052,
      "145": 1053,
      "290": 1054,
      "213": 1055,
      "328": 1056,
      "450": 1057,
      "471": 1058,
      "591": 1059,
      "551": 1060,
      "658": 1061,
      "961": 1062,
      "User_173": 1063,
      "User_151": 1064,
      "User_165": 1065,
      "User_155": 1066,
      "User_176": 1067,
      "User_184": 1068,
      "User_962": 1069,
      "User_959": 1070,
      "User_323": 1071,
      "User_369": 1072,
      "User_316": 1073,
      "User_334": 1074,
      "User_386": 1075,
      "User_699": 1076,
      "User_611": 1077,
      "User_677": 1078,
      "User_687": 1079,
      "User_616": 1080,
      "User_604": 1081,
      "User_242": 1082,
      "User_245": 1083,
      "User_280": 1084,
      "User_259": 1085,
      "User_287": 1086,
      "User_234": 1087,
      "User_851": 1088,
      "User_811": 1089,
      "User_877": 1090,
      "User_856": 1091,
      "User_839": 1092,
      "User_886": 1093,
      "User_492": 1094,
      "User_460": 1095,
      "User_410": 1096,
      "User_480": 1097,
      "User_494": 1098,
      "User_439": 1099,
      "User_416": 1100,
      "User_752": 1101,
      "User_758": 1102,
      "User_798": 1103,
      "User_795": 1104,
      "User_729": 1105,
      "User_542": 1106,
      "User_554": 1107,
      "392": 1108,
      "352": 1109,
      "362": 1110,
      "363": 1111,
      "453": 1112,
      "573": 1113,
      "571": 1114,
      "543": 1115,
      "547": 1116,
      "672": 1117,
      "810": 1118,
      "811": 1119,
      "992": 1120,
      "953": 1121,
      "User_110": 1122,
      "User_118": 1123,
      "User_124": 1124,
      "User_944": 1125,
      "User_960": 1126,
      "User_987": 1127,
      "User_358": 1128,
      "User_339": 1129,
      "User_389": 1130,
      "User_612": 1131,
      "User_654": 1132,
      "User_248": 1133,
      "User_240": 1134,
      "User_220": 1135,
      "User_211": 1136,
      "User_890": 1137,
      "User_891": 1138,
      "User_840": 1139,
      "User_867": 1140,
      "User_838": 1141,
      "User_882": 1142,
      "User_836": 1143,
      "User_470": 1144,
      "User_481": 1145,
      "User_400": 1146,
      "User_474": 1147,
      "User_435": 1148,
      "User_426": 1149,
      "User_767": 1150,
      "User_737": 1151,
      "User_509": 1152,
      "679": 1153,
      "166": 1154,
      "113": 1155,
      "270": 1156,
      "223": 1157,
      "391": 1158,
      "368": 1159,
      "321": 1160,
      "499": 1161,
      "699": 1162,
      "758": 1163,
      "751": 1164,
      "852": 1165,
      "993": 1166,
      "User_150": 1167,
      "User_193": 1168,
      "User_120": 1169,
      "User_167": 1170,
      "User_156": 1171,
      "User_129": 1172,
      "User_125": 1173,
      "User_114": 1174,
      "User_106": 1175,
      "User_913": 1176,
      "User_925": 1177,
      "User_984": 1178,
      "User_366": 1179,
      "User_375": 1180,
      "User_306": 1181,
      "User_678": 1182,
      "User_645": 1183,
      "User_683": 1184,
      "User_696": 1185,
      "User_601": 1186,
      "User_607": 1187,
      "User_233": 1188,
      "User_295": 1189,
      "User_213": 1190,
      "User_281": 1191,
      "User_214": 1192,
      "User_841": 1193,
      "User_845": 1194,
      "User_819": 1195,
      "User_885": 1196,
      "User_464": 1197,
      "User_476": 1198,
      "User_485": 1199,
      "User_733": 1200,
      "User_730": 1201,
      "User_757": 1202,
      "User_774": 1203,
      "User_739": 1204,
      "User_726": 1205,
      "User_734": 1206,
      "User_706": 1207,
      "User_540": 1208,
      "User_510": 1209,
      "User_588": 1210,
      "User_507": 1211,
      "162": 1212,
      "133": 1213,
      "273": 1214,
      "243": 1215,
      "261": 1216,
      "366": 1217,
      "572": 1218,
      "645": 1219,
      "761": 1220,
      "893": 1221,
      "868": 1222,
      "952": 1223,
      "960": 1224,
      "965": 1225,
      "945": 1226,
      "User_162": 1227,
      "User_160": 1228,
      "User_138": 1229,
      "User_136": 1230,
      "User_134": 1231,
      "User_107": 1232,
      "User_958": 1233,
      "User_998": 1234,
      "User_993": 1235,
      "User_900": 1236,
      "User_936": 1237,
      "User_902": 1238,
      "User_904": 1239,
      "User_399": 1240,
      "User_355": 1241,
      "User_321": 1242,
      "User_346": 1243,
      "User_312": 1244,
      "User_354": 1245,
      "User_326": 1246,
      "User_327": 1247,
      "User_302": 1248,
      "User_661": 1249,
      "User_649": 1250,
      "User_619": 1251,
      "User_684": 1252,
      "User_603": 1253,
      "User_290": 1254,
      "User_231": 1255,
      "User_212": 1256,
      "User_289": 1257,
      "User_205": 1258,
      "User_863": 1259,
      "User_881": 1260,
      "User_874": 1261,
      "User_829": 1262,
      "User_824": 1263,
      "User_805": 1264,
      "User_452": 1265,
      "User_499": 1266,
      "User_459": 1267,
      "User_496": 1268,
      "User_403": 1269,
      "User_723": 1270,
      "User_799": 1271,
      "User_749": 1272,
      "User_764": 1273,
      "User_785": 1274,
      "User_709": 1275,
      "User_590": 1276,
      "User_552": 1277,
      "User_572": 1278,
      "User_595": 1279,
      "User_545": 1280,
      "User_581": 1281,
      "User_532": 1282,
      "User_583": 1283,
      "User_535": 1284,
      "171": 1285,
      "143": 1286,
      "268": 1287,
      "373": 1288,
      "370": 1289,
      "342": 1290,
      "361": 1291,
      "568": 1292,
      "772": 1293,
      "743": 1294,
      "769": 1295,
      "866": 1296,
      "851": 1297,
      "842": 1298,
      "828": 1299,
      "User_144": 1300,
      "User_178": 1301,
      "User_161": 1302,
      "User_175": 1303,
      "User_169": 1304,
      "User_194": 1305,
      "User_157": 1306,
      "User_182": 1307,
      "User_189": 1308,
      "User_115": 1309,
      "User_102": 1310,
      "User_978": 1311,
      "User_928": 1312,
      "User_933": 1313,
      "User_910": 1314,
      "User_999": 1315,
      "User_930": 1316,
      "User_969": 1317,
      "User_946": 1318,
      "User_916": 1319,
      "User_333": 1320,
      "User_345": 1321,
      "User_380": 1322,
      "User_322": 1323,
      "User_349": 1324,
      "User_332": 1325,
      "User_359": 1326,
      "User_650": 1327,
      "User_673": 1328,
      "User_641": 1329,
      "User_642": 1330,
      "User_620": 1331,
      "User_621": 1332,
      "User_639": 1333,
      "User_689": 1334,
      "User_615": 1335,
      "User_273": 1336,
      "User_278": 1337,
      "User_267": 1338,
      "User_249": 1339,
      "User_200": 1340,
      "User_225": 1341,
      "User_209": 1342,
      "User_201": 1343,
      "User_858": 1344,
      "User_897": 1345,
      "User_812": 1346,
      "User_854": 1347,
      "User_825": 1348,
      "User_808": 1349,
      "User_804": 1350,
      "User_490": 1351,
      "User_466": 1352,
      "User_473": 1353,
      "User_461": 1354,
      "User_413": 1355,
      "User_488": 1356,
      "User_487": 1357,
      "User_744": 1358,
      "User_743": 1359,
      "User_768": 1360,
      "User_777": 1361,
      "User_731": 1362,
      "User_712": 1363,
      "User_708": 1364,
      "User_533": 1365,
      "User_575": 1366,
      "User_546": 1367,
      "User_589": 1368,
      "954": 1369,
      "957": 1370,
      "974": 1371,
      "757": 1372,
      "496": 1373,
      "247": 1374,
      "211": 1375,
      "550": 1376,
      "872": 1377,
      "845": 1378,
      "User_142": 1379,
      "User_140": 1380,
      "User_123": 1381,
      "User_177": 1382,
      "User_117": 1383,
      "User_103": 1384,
      "User_966": 1385,
      "User_991": 1386,
      "User_972": 1387,
      "User_953": 1388,
      "User_922": 1389,
      "User_988": 1390,
      "User_949": 1391,
      "User_979": 1392,
      "User_954": 1393,
      "User_919": 1394,
      "User_352": 1395,
      "User_373": 1396,
      "User_371": 1397,
      "User_310": 1398,
      "User_382": 1399,
      "User_300": 1400,
      "User_670": 1401,
      "User_662": 1402,
      "User_610": 1403,
      "User_697": 1404,
      "User_664": 1405,
      "User_608": 1406,
      "User_292": 1407,
      "User_293": 1408,
      "User_228": 1409,
      "User_288": 1410,
      "User_264": 1411,
      "User_274": 1412,
      "User_216": 1413,
      "User_892": 1414,
      "User_852": 1415,
      "User_898": 1416,
      "User_848": 1417,
      "User_875": 1418,
      "User_869": 1419,
      "User_800": 1420,
      "User_889": 1421,
      "User_816": 1422,
      "User_498": 1423,
      "User_493": 1424,
      "User_442": 1425,
      "User_440": 1426,
      "User_412": 1427,
      "User_766": 1428,
      "User_778": 1429,
      "User_720": 1430,
      "User_738": 1431,
      "User_716": 1432,
      "User_717": 1433,
      "User_704": 1434,
      "User_544": 1435,
      "User_548": 1436,
      "User_500": 1437,
      "User_536": 1438,
      "User_524": 1439,
      "910": 1440,
      "410": 1441,
      "979": 1442,
      "659": 1443,
      "153": 1444,
      "250": 1445,
      "799": 1446,
      "794": 1447,
      "870": 1448,
      "813": 1449,
      "838": 1450,
      "832": 1451,
      "User_191": 1452,
      "User_163": 1453,
      "User_130": 1454,
      "User_149": 1455,
      "User_164": 1456,
      "User_112": 1457,
      "User_179": 1458,
      "User_127": 1459,
      "User_108": 1460,
      "User_970": 1461,
      "User_941": 1462,
      "User_940": 1463,
      "User_965": 1464,
      "User_945": 1465,
      "User_937": 1466,
      "User_935": 1467,
      "User_914": 1468,
      "User_986": 1469,
      "User_909": 1470,
      "User_378": 1471,
      "User_370": 1472,
      "User_361": 1473,
      "User_328": 1474,
      "User_397": 1475,
      "User_347": 1476,
      "User_313": 1477,
      "User_364": 1478,
      "User_381": 1479,
      "User_331": 1480,
      "User_315": 1481,
      "User_384": 1482,
      "User_309": 1483,
      "User_308": 1484,
      "User_644": 1485,
      "User_652": 1486,
      "User_617": 1487,
      "User_251": 1488,
      "User_298": 1489,
      "User_261": 1490,
      "User_265": 1491,
      "User_283": 1492,
      "User_229": 1493,
      "User_215": 1494,
      "User_237": 1495,
      "User_285": 1496,
      "User_217": 1497,
      "User_873": 1498,
      "User_868": 1499,
      "User_861": 1500,
      "User_828": 1501,
      "User_810": 1502,
      "User_820": 1503,
      "User_818": 1504,
      "User_831": 1505,
      "User_835": 1506,
      "User_802": 1507,
      "User_803": 1508,
      "User_448": 1509,
      "User_423": 1510,
      "User_411": 1511,
      "User_430": 1512,
      "User_449": 1513,
      "User_469": 1514,
      "User_446": 1515,
      "User_434": 1516,
      "User_408": 1517,
      "User_407": 1518,
      "User_773": 1519,
      "User_753": 1520,
      "User_748": 1521,
      "User_763": 1522,
      "User_747": 1523,
      "User_711": 1524,
      "User_755": 1525,
      "User_721": 1526,
      "User_781": 1527,
      "User_746": 1528,
      "User_719": 1529,
      "User_550": 1530,
      "User_593": 1531,
      "User_518": 1532,
      "User_523": 1533,
      "User_547": 1534,
      "User_530": 1535,
      "User_549": 1536,
      "User_531": 1537,
      "User_534": 1538,
      "User_501": 1539,
      "674": 1540,
      "800": 1541,
      "293": 1542,
      "353": 1543,
      "395": 1544,
      "472": 1545,
      "569": 1546,
      "843": 1547,
      "865": 1548,
      "831": 1549,
      "User_166": 1550,
      "User_199": 1551,
      "User_121": 1552,
      "User_181": 1553,
      "User_174": 1554,
      "User_139": 1555,
      "User_119": 1556,
      "User_135": 1557,
      "User_126": 1558,
      "User_186": 1559,
      "User_101": 1560,
      "User_948": 1561,
      "User_943": 1562,
      "User_947": 1563,
      "User_921": 1564,
      "User_985": 1565,
      "User_903": 1566,
      "User_907": 1567,
      "User_393": 1568,
      "User_362": 1569,
      "User_388": 1570,
      "User_311": 1571,
      "User_338": 1572,
      "User_357": 1573,
      "User_379": 1574,
      "User_324": 1575,
      "User_303": 1576,
      "User_698": 1577,
      "User_695": 1578,
      "User_613": 1579,
      "User_675": 1580,
      "User_630": 1581,
      "User_655": 1582,
      "User_657": 1583,
      "User_646": 1584,
      "User_656": 1585,
      "User_674": 1586,
      "User_626": 1587,
      "User_634": 1588,
      "User_609": 1589,
      "User_270": 1590,
      "User_263": 1591,
      "User_286": 1592,
      "User_202": 1593,
      "User_203": 1594,
      "User_207": 1595,
      "User_853": 1596,
      "User_862": 1597,
      "User_849": 1598,
      "User_855": 1599,
      "User_859": 1600,
      "User_837": 1601,
      "User_468": 1602,
      "User_465": 1603,
      "User_447": 1604,
      "User_477": 1605,
      "User_456": 1606,
      "User_429": 1607,
      "User_425": 1608,
      "User_424": 1609,
      "User_740": 1610,
      "User_782": 1611,
      "User_700": 1612,
      "User_789": 1613,
      "User_787": 1614,
      "User_736": 1615,
      "User_702": 1616,
      "User_703": 1617,
      "User_592": 1618,
      "User_573": 1619,
      "User_591": 1620,
      "User_543": 1621,
      "User_561": 1622,
      "User_537": 1623,
      "User_527": 1624,
      "User_514": 1625,
      "User_586": 1626,
      "User_503": 1627,
      "900": 1628,
      "505": 1629,
      "227": 1630,
      "193": 1631,
      "195": 1632,
      "165": 1633,
      "175": 1634,
      "271": 1635,
      "277": 1636,
      "553": 1637,
      "545": 1638,
      "575": 1639,
      "695": 1640,
      "771": 1641,
      "User_158": 1642,
      "User_170": 1643,
      "User_145": 1644,
      "User_147": 1645,
      "User_187": 1646,
      "User_920": 1647,
      "User_967": 1648,
      "User_980": 1649,
      "User_938": 1650,
      "User_957": 1651,
      "User_934": 1652,
      "User_392": 1653,
      "User_350": 1654,
      "User_372": 1655,
      "User_383": 1656,
      "User_628": 1657,
      "User_633": 1658,
      "User_688": 1659,
      "User_638": 1660,
      "User_681": 1661,
      "User_682": 1662,
      "User_266": 1663,
      "User_243": 1664,
      "User_230": 1665,
      "User_277": 1666,
      "User_224": 1667,
      "User_296": 1668,
      "User_208": 1669,
      "User_206": 1670,
      "User_893": 1671,
      "User_895": 1672,
      "User_847": 1673,
      "User_899": 1674,
      "User_883": 1675,
      "User_826": 1676,
      "User_463": 1677,
      "User_433": 1678,
      "User_497": 1679,
      "User_475": 1680,
      "User_455": 1681,
      "User_401": 1682,
      "User_792": 1683,
      "User_751": 1684,
      "User_762": 1685,
      "User_760": 1686,
      "User_710": 1687,
      "User_713": 1688,
      "User_735": 1689,
      "User_724": 1690,
      "User_714": 1691,
      "User_570": 1692,
      "User_571": 1693,
      "User_560": 1694,
      "User_567": 1695,
      "User_555": 1696,
      "User_538": 1697,
      "User_594": 1698,
      "User_557": 1699,
      "User_582": 1700,
      "User_579": 1701,
      "User_576": 1702,
      "User_585": 1703,
      "User_504": 1704,
      "929": 1705,
      "918": 1706,
      "981": 1707,
      "985": 1708,
      "300": 1709,
      "574": 1710,
      "173": 1711,
      "178": 1712,
      "161": 1713,
      "122": 1714,
      "365": 1715,
      "577": 1716,
      "649": 1717,
      "797": 1718,
      "745": 1719,
      "853": 1720,
      "878": 1721,
      "875": 1722,
      "964": 1723,
      "User_153": 1724,
      "User_171": 1725,
      "User_180": 1726,
      "User_188": 1727,
      "User_132": 1728,
      "User_950": 1729,
      "User_942": 1730,
      "User_923": 1731,
      "User_981": 1732,
      "User_994": 1733,
      "User_932": 1734,
      "User_915": 1735,
      "User_917": 1736,
      "User_926": 1737,
      "User_906": 1738,
      "User_390": 1739,
      "User_353": 1740,
      "User_360": 1741,
      "User_320": 1742,
      "User_377": 1743,
      "User_396": 1744,
      "User_690": 1745,
      "User_691": 1746,
      "User_680": 1747,
      "User_694": 1748,
      "User_632": 1749,
      "User_600": 1750,
      "User_629": 1751,
      "User_624": 1752,
      "User_686": 1753,
      "User_253": 1754,
      "User_271": 1755,
      "User_218": 1756,
      "User_222": 1757,
      "User_254": 1758,
      "User_256": 1759,
      "User_236": 1760,
      "User_865": 1761,
      "User_821": 1762,
      "User_815": 1763,
      "User_887": 1764,
      "User_817": 1765,
      "User_827": 1766,
      "User_801": 1767,
      "User_441": 1768,
      "User_471": 1769,
      "User_462": 1770,
      "User_428": 1771,
      "User_418": 1772,
      "User_479": 1773,
      "User_484": 1774,
      "User_409": 1775,
      "User_790": 1776,
      "User_745": 1777,
      "User_722": 1778,
      "User_775": 1779,
      "User_727": 1780,
      "User_598": 1781,
      "User_578": 1782,
      "User_541": 1783,
      "User_568": 1784,
      "User_513": 1785,
      "User_580": 1786,
      "User_511": 1787,
      "User_577": 1788,
      "User_521": 1789,
      "User_512": 1790,
      "User_519": 1791,
      "User_515": 1792,
      "User_525": 1793,
      "User_596": 1794,
      "586": 1795,
      "587": 1796,
      "660": 1797,
      "980": 1798,
      "623": 1799,
      "400": 1800,
      "999": 1801,
      "696": 1802,
      "172": 1803,
      "168": 1804,
      "147": 1805,
      "155": 1806,
      "253": 1807,
      "343": 1808,
      "347": 1809,
      "764": 1810,
      "User_192": 1811,
      "User_152": 1812,
      "User_100": 1813,
      "User_971": 1814,
      "User_961": 1815,
      "User_963": 1816,
      "User_995": 1817,
      "User_931": 1818,
      "User_344": 1819,
      "User_341": 1820,
      "User_318": 1821,
      "User_365": 1822,
      "User_367": 1823,
      "User_356": 1824,
      "User_329": 1825,
      "User_337": 1826,
      "User_385": 1827,
      "User_304": 1828,
      "User_301": 1829,
      "User_623": 1830,
      "User_676": 1831,
      "User_625": 1832,
      "User_627": 1833,
      "User_250": 1834,
      "User_272": 1835,
      "User_260": 1836,
      "User_221": 1837,
      "User_232": 1838,
      "User_239": 1839,
      "User_888": 1840,
      "User_894": 1841,
      "User_832": 1842,
      "User_876": 1843,
      "User_884": 1844,
      "User_814": 1845,
      "User_806": 1846,
      "User_451": 1847,
      "User_472": 1848,
      "User_422": 1849,
      "User_421": 1850,
      "User_457": 1851,
      "User_432": 1852,
      "User_417": 1853,
      "User_406": 1854,
      "User_770": 1855,
      "User_771": 1856,
      "User_742": 1857,
      "User_794": 1858,
      "User_759": 1859,
      "User_754": 1860,
      "User_783": 1861,
      "User_715": 1862,
      "User_796": 1863,
      "User_786": 1864,
      "User_701": 1865,
      "User_707": 1866,
      "User_569": 1867,
      "User_574": 1868,
      "User_517": 1869,
      "User_584": 1870,
      "User_502": 1871,
      "User_508": 1872,
      "User_506": 1873,
      "445": 1874,
      "588": 1875,
      "509": 1876,
      "989": 1877,
      "707": 1878,
      "633": 1879,
      "280": 1880,
      "494": 1881,
      "559": 1882,
      "694": 1883,
      "177": 1884,
      "372": 1885,
      "364": 1886,
      "467": 1887,
      "565": 1888,
      "567": 1889,
      "767": 1890,
      "850": 1891,
      "897": 1892,
      "947": 1893,
      "User_122": 1894,
      "User_154": 1895,
      "User_968": 1896,
      "User_918": 1897,
      "User_989": 1898,
      "User_901": 1899,
      "User_368": 1900,
      "User_319": 1901,
      "User_314": 1902,
      "User_307": 1903,
      "User_693": 1904,
      "User_653": 1905,
      "User_643": 1906,
      "User_668": 1907,
      "User_665": 1908,
      "User_647": 1909,
      "User_631": 1910,
      "User_659": 1911,
      "User_262": 1912,
      "User_299": 1913,
      "User_255": 1914,
      "User_279": 1915,
      "User_235": 1916,
      "User_878": 1917,
      "User_843": 1918,
      "User_860": 1919,
      "User_822": 1920,
      "User_846": 1921,
      "User_809": 1922,
      "User_807": 1923,
      "User_491": 1924,
      "User_478": 1925,
      "User_438": 1926,
      "User_427": 1927,
      "User_741": 1928,
      "User_761": 1929,
      "User_769": 1930,
      "User_725": 1931,
      "User_784": 1932,
      "User_705": 1933,
      "User_563": 1934,
      "User_522": 1935,
      "528": 1936,
      "529": 1937,
      "734": 1938,
      "988": 1939,
      "934": 1940,
      "425": 1941,
      "630": 1942,
      "956": 1943,
      "200": 1944,
      "202": 1945,
      "217": 1946,
      "579": 1947,
      "197": 1948,
      "275": 1949,
      "279": 1950,
      "367": 1951,
      "388": 1952,
      "355": 1953,
      "379": 1954,
      "497": 1955,
      "597": 1956,
      "849": 1957,
      "877": 1958,
      "997": 1959,
      "User_143": 1960,
      "User_146": 1961,
      "User_105": 1962,
      "User_974": 1963,
      "User_924": 1964,
      "User_342": 1965,
      "User_648": 1966,
      "User_637": 1967,
      "User_252": 1968,
      "User_247": 1969,
      "User_269": 1970,
      "User_282": 1971,
      "User_276": 1972,
      "User_850": 1973,
      "User_880": 1974,
      "User_864": 1975,
      "User_458": 1976,
      "User_482": 1977,
      "User_489": 1978,
      "User_419": 1979,
      "User_437": 1980,
      "User_414": 1981,
      "User_486": 1982,
      "User_772": 1983,
      "User_793": 1984,
      "User_780": 1985,
      "User_756": 1986,
      "User_566": 1987,
      "User_565": 1988,
      "User_556": 1989,
      "928": 1990,
      "901": 1991,
      "902": 1992,
      "905": 1993,
      "582": 1994,
      "589": 1995,
      "786": 1996,
      "417": 1997,
      "480": 1998,
      "607": 1999
    },
    "merges": [
      [
        "a",
        "n"
      ],
      [
        "a",
        "r"
      ],
      [
        "e",
        "r"
      ],
      [
        "a",
        "h"
      ],
      [
        "i",
        "a"
      ],
      [
        "a",
        "l"
      ],
      [
        "a",
        "s"
      ],
      [
        "an",
        "g"
      ],
      [
        "p",
        "a"
      ],
      [
        "u",
        "n"
      ],
      [
        "d",
        "i"
      ],
      [
        "n",
        "a"
      ],
      [
        "un",
        "t"
      ],
      [
        "d",
        "e"
      ],
      [
        "u",
        "k"
      ],
      [
        "U",
        "s"
      ],
      [
        "o",
        "de"
      ],
      [
        "r",
        "ah"
      ],
      [
        "er",
        "_"
      ],
      [
        "as",
        "ia"
      ],
      [
        "unt",
        "uk"
      ],
      [
        "Us",
        "er_"
      ],
      [
        "rah",
        "asia"
      ],
      [
        "ar",
        "i"
      ],
      [
        "A",
        "pa"
      ],
      [
        "a",
        "d"
      ],
      [
        "m",
        "a"
      ],
      [
        "b",
        "e"
      ],
      [
        "al",
        "ah"
      ],
      [
        "ad",
        "alah"
      ],
      [
        "d",
        "an"
      ],
      [
        "e",
        "n"
      ],
      [
        "b",
        "er"
      ],
      [
        "o",
        "r"
      ],
      [
        "i",
        "n"
      ],
      [
        "l",
        "i"
      ],
      [
        "j",
        "a"
      ],
      [
        "d",
        "ari"
      ],
      [
        "or",
        "ang"
      ],
      [
        "o",
        "n"
      ],
      [
        "w",
        "ar"
      ],
      [
        "t",
        "a"
      ],
      [
        "y",
        "ang"
      ],
      [
        "s",
        "e"
      ],
      [
        "di",
        "be"
      ],
      [
        "i",
        "r"
      ],
      [
        "na",
        "ma"
      ],
      [
        "K",
        "ode"
      ],
      [
        "k",
        "ode"
      ],
      [
        "i",
        "l"
      ],
      [
        "k",
        "an"
      ],
      [
        "in",
        "i"
      ],
      [
        "a",
        "p"
      ],
      [
        "m",
        "o"
      ],
      [
        "s",
        "ar"
      ],
      [
        "war",
        "na"
      ],
      [
        "b",
        "il"
      ],
      [
        "mo",
        "bil"
      ],
      [
        "p",
        "e"
      ],
      [
        "en",
        "g"
      ],
      [
        "k",
        "er"
      ],
      [
        "ker",
        "ja"
      ],
      [
        "l",
        "ah"
      ],
      [
        "dibe",
        "sar"
      ],
      [
        "lah",
        "ir"
      ],
      [
        "dibesar",
        "kan"
      ],
      [
        "k",
        "ap"
      ],
      [
        "l",
        "eng"
      ],
      [
        "as",
        "al"
      ],
      [
        "ber",
        "asal"
      ],
      [
        "leng",
        "kap"
      ],
      [
        "ar",
        "a"
      ],
      [
        "y",
        "a"
      ],
      [
        "r",
        "a"
      ],
      [
        "m",
        "an"
      ],
      [
        "k",
        "o"
      ],
      [
        "ara",
        "an"
      ],
      [
        "r",
        "o"
      ],
      [
        "S",
        "ia"
      ],
      [
        "Sia",
        "pa"
      ],
      [
        "e",
        "m"
      ],
      [
        "u",
        "t"
      ],
      [
        "a",
        "i"
      ],
      [
        "i",
        "on"
      ],
      [
        "D",
        "i"
      ],
      [
        "b",
        "a"
      ],
      [
        "h",
        "araan"
      ],
      [
        "li",
        "haraan"
      ],
      [
        "pe",
        "liharaan"
      ],
      [
        "m",
        "em"
      ],
      [
        "e",
        "s"
      ],
      [
        "h",
        "ari"
      ],
      [
        "ber",
        "warna"
      ],
      [
        "a",
        "k"
      ],
      [
        "f",
        "es"
      ],
      [
        "g",
        "ai"
      ],
      [
        "p",
        "ro"
      ],
      [
        "be",
        "kerja"
      ],
      [
        "se",
        "orang"
      ],
      [
        "se",
        "ba"
      ],
      [
        "pe",
        "kerja"
      ],
      [
        "ion",
        "al"
      ],
      [
        "fes",
        "ional"
      ],
      [
        "pro",
        "fesional"
      ],
      [
        "seba",
        "gai"
      ],
      [
        "pekerja",
        "an"
      ],
      [
        "man",
        "a"
      ],
      [
        "ko",
        "ta"
      ],
      [
        "w",
        "an"
      ],
      [
        "N",
        "a"
      ],
      [
        "d",
        "ia"
      ],
      [
        "Na",
        "ma"
      ],
      [
        "u",
        "s"
      ],
      [
        "d",
        "a"
      ],
      [
        "r",
        "i"
      ],
      [
        "u",
        "r"
      ],
      [
        "i",
        "t"
      ],
      [
        "en",
        "d"
      ],
      [
        "a",
        "t"
      ],
      [
        "u",
        "di"
      ],
      [
        "P",
        "ut"
      ],
      [
        "N",
        "i"
      ],
      [
        "b",
        "ar"
      ],
      [
        "bar",
        "u"
      ],
      [
        "i",
        "m"
      ],
      [
        "k",
        "i"
      ],
      [
        "e",
        "k"
      ],
      [
        "m",
        "er"
      ],
      [
        "H",
        "i"
      ],
      [
        "e",
        "t"
      ],
      [
        "D",
        "e"
      ],
      [
        "y",
        "u"
      ],
      [
        "R",
        "i"
      ],
      [
        "on",
        "o"
      ],
      [
        "e",
        "g"
      ],
      [
        "W",
        "i"
      ],
      [
        "ta",
        "ma"
      ],
      [
        "i",
        "li"
      ],
      [
        "di",
        "ber"
      ],
      [
        "mem",
        "ili"
      ],
      [
        "diber",
        "i"
      ],
      [
        "memili",
        "ki"
      ],
      [
        "K",
        "end"
      ],
      [
        "se",
        "hari"
      ],
      [
        "mer",
        "ek"
      ],
      [
        "Kend",
        "araan"
      ],
      [
        "a",
        "ja"
      ],
      [
        "n",
        "an"
      ],
      [
        "s",
        "aja"
      ],
      [
        "be",
        "li"
      ],
      [
        "war",
        "nan"
      ],
      [
        "dibe",
        "li"
      ],
      [
        "mem",
        "beli"
      ],
      [
        "warnan",
        "ya"
      ],
      [
        "User_",
        "1"
      ],
      [
        "User_",
        "9"
      ],
      [
        "User_",
        "3"
      ],
      [
        "User_",
        "6"
      ],
      [
        "User_",
        "2"
      ],
      [
        "User_",
        "8"
      ],
      [
        "User_",
        "4"
      ],
      [
        "User_",
        "7"
      ],
      [
        "User_",
        "5"
      ],
      [
        "M",
        "a"
      ],
      [
        "ar",
        "ta"
      ],
      [
        "e",
        "l"
      ],
      [
        "M",
        "er"
      ],
      [
        "K",
        "u"
      ],
      [
        "A",
        "n"
      ],
      [
        "H",
        "a"
      ],
      [
        "B",
        "an"
      ],
      [
        "P",
        "ra"
      ],
      [
        "u",
        "g"
      ],
      [
        "i",
        "man"
      ],
      [
        "b",
        "u"
      ],
      [
        "in",
        "g"
      ],
      [
        "m",
        "as"
      ],
      [
        "un",
        "a"
      ],
      [
        "S",
        "u"
      ],
      [
        "Mer",
        "ah"
      ],
      [
        "R",
        "udi"
      ],
      [
        "L",
        "ia"
      ],
      [
        "S",
        "it"
      ],
      [
        "Sit",
        "i"
      ],
      [
        "R",
        "ini"
      ],
      [
        "un",
        "g"
      ],
      [
        "A",
        "ri"
      ],
      [
        "Ari",
        "s"
      ],
      [
        "D",
        "on"
      ],
      [
        "Don",
        "i"
      ],
      [
        "d",
        "y"
      ],
      [
        "De",
        "dy"
      ],
      [
        "4",
        "4"
      ],
      [
        "A",
        "g"
      ],
      [
        "Ag",
        "us"
      ],
      [
        "B",
        "a"
      ],
      [
        "B",
        "udi"
      ],
      [
        "Ba",
        "yu"
      ],
      [
        "Ni",
        "na"
      ],
      [
        "E",
        "ko"
      ],
      [
        "An",
        "di"
      ],
      [
        "M",
        "eg"
      ],
      [
        "Meg",
        "a"
      ],
      [
        "Ni",
        "ta"
      ],
      [
        "S",
        "ari"
      ],
      [
        "I",
        "wan"
      ],
      [
        "Ma",
        "ya"
      ],
      [
        "9",
        "2"
      ],
      [
        "Di",
        "an"
      ],
      [
        "A",
        "yu"
      ],
      [
        "w",
        "i"
      ],
      [
        "De",
        "wi"
      ],
      [
        "F",
        "it"
      ],
      [
        "Ri",
        "o"
      ],
      [
        "Fit",
        "ri"
      ],
      [
        "P",
        "ur"
      ],
      [
        "Pur",
        "nama"
      ],
      [
        "T",
        "ono"
      ],
      [
        "ya",
        "t"
      ],
      [
        "da",
        "yat"
      ],
      [
        "Hi",
        "dayat"
      ],
      [
        "N",
        "as"
      ],
      [
        "ut",
        "ion"
      ],
      [
        "Nas",
        "ution"
      ],
      [
        "Ri",
        "na"
      ],
      [
        "H",
        "al"
      ],
      [
        "Hal",
        "im"
      ],
      [
        "J",
        "o"
      ],
      [
        "Jo",
        "ko"
      ],
      [
        "W",
        "at"
      ],
      [
        "Wat",
        "i"
      ],
      [
        "9",
        "0"
      ],
      [
        "Ha",
        "di"
      ],
      [
        "b",
        "o"
      ],
      [
        "w",
        "o"
      ],
      [
        "Wi",
        "bo"
      ],
      [
        "Wibo",
        "wo"
      ],
      [
        "Put",
        "ri"
      ],
      [
        "S",
        "ur"
      ],
      [
        "y",
        "ono"
      ],
      [
        "Sur",
        "yono"
      ],
      [
        "S",
        "ap"
      ],
      [
        "ut",
        "ra"
      ],
      [
        "Sap",
        "utra"
      ],
      [
        "ja",
        "ya"
      ],
      [
        "Wi",
        "jaya"
      ],
      [
        "Put",
        "ra"
      ],
      [
        "S",
        "et"
      ],
      [
        "ia",
        "wan"
      ],
      [
        "Set",
        "iawan"
      ],
      [
        "5",
        "2"
      ],
      [
        "L",
        "im"
      ],
      [
        "5",
        "8"
      ],
      [
        "H",
        "end"
      ],
      [
        "Hend",
        "ra"
      ],
      [
        "R",
        "ah"
      ],
      [
        "S",
        "an"
      ],
      [
        "o",
        "s"
      ],
      [
        "t",
        "os"
      ],
      [
        "Rah",
        "man"
      ],
      [
        "San",
        "tos"
      ],
      [
        "Santos",
        "o"
      ],
      [
        "6",
        "6"
      ],
      [
        "5",
        "0"
      ],
      [
        "7",
        "3"
      ],
      [
        "Pra",
        "tama"
      ],
      [
        "S",
        "ir"
      ],
      [
        "U",
        "tama"
      ],
      [
        "eg",
        "ar"
      ],
      [
        "Sir",
        "egar"
      ],
      [
        "S",
        "iman"
      ],
      [
        "j",
        "unt"
      ],
      [
        "Siman",
        "junt"
      ],
      [
        "Simanjunt",
        "ak"
      ],
      [
        "N",
        "ug"
      ],
      [
        "h",
        "o"
      ],
      [
        "ro",
        "ho"
      ],
      [
        "Nug",
        "roho"
      ],
      [
        "9",
        "1"
      ],
      [
        "K",
        "us"
      ],
      [
        "u",
        "ma"
      ],
      [
        "Kus",
        "uma"
      ],
      [
        "5",
        "1"
      ],
      [
        "7",
        "2"
      ],
      [
        "9",
        "8"
      ],
      [
        "s",
        "u"
      ],
      [
        "9",
        "3"
      ],
      [
        "G",
        "una"
      ],
      [
        "Guna",
        "wan"
      ],
      [
        "5",
        "3"
      ],
      [
        "7",
        "8"
      ],
      [
        "7",
        "0"
      ],
      [
        "4",
        "1"
      ],
      [
        "7",
        "1"
      ],
      [
        "4",
        "2"
      ],
      [
        "4",
        "8"
      ],
      [
        "6",
        "2"
      ],
      [
        "o",
        "k"
      ],
      [
        "4",
        "3"
      ],
      [
        "6",
        "8"
      ],
      [
        "6",
        "0"
      ],
      [
        "an",
        "y"
      ],
      [
        "4",
        "0"
      ],
      [
        "6",
        "1"
      ],
      [
        "C",
        "h"
      ],
      [
        "6",
        "3"
      ],
      [
        "l",
        "et"
      ],
      [
        "t",
        "er"
      ],
      [
        "p",
        "ang"
      ],
      [
        "Ku",
        "pang"
      ],
      [
        "P",
        "e"
      ],
      [
        "j",
        "ar"
      ],
      [
        "kan",
        "baru"
      ],
      [
        "Ban",
        "jar"
      ],
      [
        "mas",
        "in"
      ],
      [
        "Pe",
        "kanbaru"
      ],
      [
        "Banjar",
        "masin"
      ],
      [
        "P",
        "ad"
      ],
      [
        "d",
        "ung"
      ],
      [
        "Ban",
        "dung"
      ],
      [
        "Pad",
        "ang"
      ],
      [
        "P",
        "al"
      ],
      [
        "b",
        "ang"
      ],
      [
        "em",
        "bang"
      ],
      [
        "Pal",
        "embang"
      ],
      [
        "P",
        "on"
      ],
      [
        "i",
        "an"
      ],
      [
        "t",
        "ian"
      ],
      [
        "Pon",
        "tian"
      ],
      [
        "Pontian",
        "ak"
      ],
      [
        "D",
        "ai"
      ],
      [
        "B",
        "al"
      ],
      [
        "L",
        "e"
      ],
      [
        "Y",
        "o"
      ],
      [
        "g",
        "ya"
      ],
      [
        "i",
        "k"
      ],
      [
        "k",
        "arta"
      ],
      [
        "p",
        "an"
      ],
      [
        "pa",
        "pan"
      ],
      [
        "Bal",
        "ik"
      ],
      [
        "Yo",
        "gya"
      ],
      [
        "Balik",
        "papan"
      ],
      [
        "Yogya",
        "karta"
      ],
      [
        "D",
        "en"
      ],
      [
        "p",
        "as"
      ],
      [
        "Den",
        "pas"
      ],
      [
        "Denpas",
        "ar"
      ],
      [
        "2",
        "8"
      ],
      [
        "li",
        "s"
      ],
      [
        "M",
        "e"
      ],
      [
        "Me",
        "dan"
      ],
      [
        "M",
        "al"
      ],
      [
        "Mal",
        "ang"
      ],
      [
        "3",
        "3"
      ],
      [
        "h",
        "i"
      ],
      [
        "S",
        "em"
      ],
      [
        "ar",
        "ang"
      ],
      [
        "Sem",
        "arang"
      ],
      [
        "M",
        "an"
      ],
      [
        "ad",
        "o"
      ],
      [
        "Man",
        "ado"
      ],
      [
        "P",
        "en"
      ],
      [
        "M",
        "ak"
      ],
      [
        "as",
        "sar"
      ],
      [
        "Mak",
        "assar"
      ],
      [
        "J",
        "ak"
      ],
      [
        "M",
        "at"
      ],
      [
        "ara",
        "m"
      ],
      [
        "Jak",
        "arta"
      ],
      [
        "Mat",
        "aram"
      ],
      [
        "S",
        "a"
      ],
      [
        "m",
        "ari"
      ],
      [
        "n",
        "da"
      ],
      [
        "Sa",
        "mari"
      ],
      [
        "Samari",
        "nda"
      ],
      [
        "9",
        "5"
      ],
      [
        "1",
        "0"
      ],
      [
        "A",
        "m"
      ],
      [
        "b",
        "on"
      ],
      [
        "Am",
        "bon"
      ],
      [
        "9",
        "7"
      ],
      [
        "2",
        "0"
      ],
      [
        "ra",
        "ba"
      ],
      [
        "Su",
        "raba"
      ],
      [
        "Suraba",
        "ya"
      ],
      [
        "1",
        "8"
      ],
      [
        "6",
        "5"
      ],
      [
        "4",
        "5"
      ],
      [
        "2",
        "3"
      ],
      [
        "4",
        "7"
      ],
      [
        "6",
        "7"
      ],
      [
        "1",
        "3"
      ],
      [
        "8",
        "0"
      ],
      [
        "B",
        "ir"
      ],
      [
        "Bir",
        "u"
      ],
      [
        "P",
        "er"
      ],
      [
        "Per",
        "ak"
      ],
      [
        "i",
        "h"
      ],
      [
        "Put",
        "ih"
      ],
      [
        "ja",
        "u"
      ],
      [
        "Hi",
        "jau"
      ],
      [
        "ta",
        "m"
      ],
      [
        "Hi",
        "tam"
      ],
      [
        "K",
        "un"
      ],
      [
        "Kun",
        "ing"
      ],
      [
        "A",
        "bu"
      ],
      [
        "a",
        "bu"
      ],
      [
        "9",
        "9"
      ],
      [
        "E",
        "mas"
      ],
      [
        "O",
        "r"
      ],
      [
        "any",
        "e"
      ],
      [
        "Or",
        "anye"
      ],
      [
        "U",
        "n"
      ],
      [
        "g",
        "u"
      ],
      [
        "Un",
        "gu"
      ],
      [
        "C",
        "ok"
      ],
      [
        "el",
        "at"
      ],
      [
        "Cok",
        "elat"
      ],
      [
        "o",
        "c"
      ],
      [
        "2",
        "2"
      ],
      [
        "M",
        "u"
      ],
      [
        "Mu",
        "da"
      ],
      [
        "8",
        "8"
      ],
      [
        "il",
        "o"
      ],
      [
        "7",
        "5"
      ],
      [
        "1",
        "1"
      ],
      [
        "3",
        "0"
      ],
      [
        "el",
        "a"
      ],
      [
        "T",
        "o"
      ],
      [
        "o",
        "ta"
      ],
      [
        "y",
        "ota"
      ],
      [
        "To",
        "yota"
      ],
      [
        "4",
        "9"
      ],
      [
        "5",
        "5"
      ],
      [
        "H",
        "y"
      ],
      [
        "d",
        "ai"
      ],
      [
        "un",
        "dai"
      ],
      [
        "Hy",
        "undai"
      ],
      [
        "A",
        "udi"
      ],
      [
        "x",
        "us"
      ],
      [
        "Le",
        "xus"
      ],
      [
        "F",
        "or"
      ],
      [
        "For",
        "d"
      ],
      [
        "e",
        "v"
      ],
      [
        "ro",
        "let"
      ],
      [
        "Ch",
        "ev"
      ],
      [
        "Chev",
        "rolet"
      ],
      [
        "K",
        "ia"
      ],
      [
        "M",
        "it"
      ],
      [
        "b",
        "i"
      ],
      [
        "s",
        "hi"
      ],
      [
        "su",
        "bi"
      ],
      [
        "Mit",
        "subi"
      ],
      [
        "Mitsubi",
        "shi"
      ],
      [
        "s",
        "s"
      ],
      [
        "Ni",
        "ss"
      ],
      [
        "Niss",
        "an"
      ],
      [
        "B",
        "en"
      ],
      [
        "c",
        "e"
      ],
      [
        "z",
        "da"
      ],
      [
        "de",
        "s"
      ],
      [
        "Ma",
        "zda"
      ],
      [
        "Mer",
        "ce"
      ],
      [
        "Ben",
        "z"
      ],
      [
        "Merce",
        "des"
      ],
      [
        "H",
        "on"
      ],
      [
        "Hon",
        "da"
      ],
      [
        "6",
        "9"
      ],
      [
        "h",
        "at"
      ],
      [
        "Dai",
        "hat"
      ],
      [
        "Daihat",
        "su"
      ],
      [
        "z",
        "uk"
      ],
      [
        "Su",
        "zuk"
      ],
      [
        "Suzuk",
        "i"
      ],
      [
        "3",
        "8"
      ],
      [
        "7",
        "7"
      ],
      [
        "B",
        "M"
      ],
      [
        "BM",
        "W"
      ],
      [
        "2",
        "1"
      ],
      [
        "6",
        "4"
      ],
      [
        "8",
        "1"
      ],
      [
        "9",
        "4"
      ],
      [
        "5",
        "7"
      ],
      [
        "3",
        "1"
      ],
      [
        "8",
        "2"
      ],
      [
        "B",
        "ur"
      ],
      [
        "Bur",
        "ung"
      ],
      [
        "m",
        "s"
      ],
      [
        "Ha",
        "ms"
      ],
      [
        "Hams",
        "ter"
      ],
      [
        "A",
        "ya"
      ],
      [
        "Aya",
        "m"
      ],
      [
        "B",
        "e"
      ],
      [
        "be",
        "k"
      ],
      [
        "Be",
        "bek"
      ],
      [
        "M",
        "us"
      ],
      [
        "Mus",
        "ang"
      ],
      [
        "4",
        "6"
      ],
      [
        "I",
        "kan"
      ],
      [
        "k",
        "u"
      ],
      [
        "Ku",
        "ra"
      ],
      [
        "ku",
        "ra"
      ],
      [
        "j",
        "ing"
      ],
      [
        "An",
        "jing"
      ],
      [
        "3",
        "2"
      ],
      [
        "K",
        "el"
      ],
      [
        "c",
        "i"
      ],
      [
        "c",
        "ing"
      ],
      [
        "in",
        "ci"
      ],
      [
        "Ku",
        "cing"
      ],
      [
        "Kel",
        "inci"
      ],
      [
        "1",
        "2"
      ],
      [
        "5",
        "9"
      ],
      [
        "7",
        "9"
      ],
      [
        "5",
        "4"
      ],
      [
        "m",
        "ug"
      ],
      [
        "Pra",
        "mug"
      ],
      [
        "Pramug",
        "ari"
      ],
      [
        "A",
        "r"
      ],
      [
        "s",
        "it"
      ],
      [
        "Ar",
        "sit"
      ],
      [
        "Arsit",
        "ek"
      ],
      [
        "A",
        "k"
      ],
      [
        "D",
        "ok"
      ],
      [
        "t",
        "or"
      ],
      [
        "Ak",
        "tor"
      ],
      [
        "Dok",
        "ter"
      ],
      [
        "P",
        "o"
      ],
      [
        "lis",
        "i"
      ],
      [
        "Po",
        "lisi"
      ],
      [
        "I",
        "n"
      ],
      [
        "P",
        "ilo"
      ],
      [
        "s",
        "in"
      ],
      [
        "y",
        "ur"
      ],
      [
        "In",
        "sin"
      ],
      [
        "Pilo",
        "t"
      ],
      [
        "Insin",
        "yur"
      ],
      [
        "D",
        "es"
      ],
      [
        "a",
        "in"
      ],
      [
        "Des",
        "ain"
      ],
      [
        "Desain",
        "er"
      ],
      [
        "8",
        "3"
      ],
      [
        "T",
        "en"
      ],
      [
        "t",
        "ara"
      ],
      [
        "Ten",
        "tara"
      ],
      [
        "S",
        "en"
      ],
      [
        "Sen",
        "iman"
      ],
      [
        "P",
        "ro"
      ],
      [
        "g",
        "ra"
      ],
      [
        "m",
        "mer"
      ],
      [
        "Pro",
        "gra"
      ],
      [
        "Progra",
        "mmer"
      ],
      [
        "5",
        "6"
      ],
      [
        "7",
        "6"
      ],
      [
        "y",
        "any"
      ],
      [
        "Pen",
        "yany"
      ],
      [
        "Penyany",
        "i"
      ],
      [
        "P",
        "et"
      ],
      [
        "an",
        "i"
      ],
      [
        "Pet",
        "ani"
      ],
      [
        "N",
        "ela"
      ],
      [
        "y",
        "an"
      ],
      [
        "Nela",
        "yan"
      ],
      [
        "0",
        "0"
      ],
      [
        "P",
        "eng"
      ],
      [
        "ah",
        "a"
      ],
      [
        "us",
        "aha"
      ],
      [
        "Peng",
        "usaha"
      ],
      [
        "7",
        "4"
      ],
      [
        "u",
        "lis"
      ],
      [
        "Pen",
        "ulis"
      ],
      [
        "K",
        "o"
      ],
      [
        "Ko",
        "ki"
      ],
      [
        "G",
        "ur"
      ],
      [
        "W",
        "arta"
      ],
      [
        "Gur",
        "u"
      ],
      [
        "Warta",
        "wan"
      ],
      [
        "A",
        "t"
      ],
      [
        "At",
        "let"
      ],
      [
        "2",
        "9"
      ],
      [
        "3",
        "9"
      ],
      [
        "8",
        "9"
      ],
      [
        "1",
        "9"
      ],
      [
        "1",
        "5"
      ],
      [
        "8",
        "7"
      ],
      [
        "1",
        "6"
      ],
      [
        "3",
        "7"
      ],
      [
        "8",
        "5"
      ],
      [
        "2",
        "5"
      ],
      [
        "3",
        "6"
      ],
      [
        "1",
        "7"
      ],
      [
        "8",
        "4"
      ],
      [
        "3",
        "5"
      ],
      [
        "2",
        "6"
      ],
      [
        "2",
        "7"
      ],
      [
        "2",
        "4"
      ],
      [
        "9",
        "6"
      ],
      [
        "3",
        "4"
      ],
      [
        "1",
        "4"
      ],
      [
        "8",
        "6"
      ],
      [
        "0",
        "9"
      ],
      [
        "0",
        "2"
      ],
      [
        "0",
        "3"
      ],
      [
        "0",
        "8"
      ],
      [
        "0",
        "4"
      ],
      [
        "0",
        "1"
      ],
      [
        "0",
        "7"
      ],
      [
        "0",
        "6"
      ],
      [
        "0",
        "5"
      ],
      [
        "c",
        "o"
      ],
      [
        "i",
        "co"
      ],
      [
        "Ch",
        "ico"
      ],
      [
        "s",
        "y"
      ],
      [
        "Dai",
        "sy"
      ],
      [
        "B",
        "el"
      ],
      [
        "N",
        "e"
      ],
      [
        "l",
        "a"
      ],
      [
        "Bel",
        "la"
      ],
      [
        "Ne",
        "mo"
      ],
      [
        "K",
        "i"
      ],
      [
        "Ki",
        "ko"
      ],
      [
        "M",
        "o"
      ],
      [
        "l",
        "l"
      ],
      [
        "Mo",
        "ll"
      ],
      [
        "Moll",
        "y"
      ],
      [
        "B",
        "u"
      ],
      [
        "Bu",
        "bu"
      ],
      [
        "L",
        "u"
      ],
      [
        "c",
        "y"
      ],
      [
        "Lu",
        "cy"
      ],
      [
        "B",
        "ela"
      ],
      [
        "L",
        "una"
      ],
      [
        "O",
        "y"
      ],
      [
        "Oy",
        "en"
      ],
      [
        "R",
        "oc"
      ],
      [
        "Z",
        "or"
      ],
      [
        "k",
        "y"
      ],
      [
        "Roc",
        "ky"
      ],
      [
        "Zor",
        "ro"
      ],
      [
        "ar",
        "li"
      ],
      [
        "Ch",
        "arli"
      ],
      [
        "Charli",
        "e"
      ],
      [
        "Le",
        "o"
      ],
      [
        "M",
        "ilo"
      ],
      [
        "S",
        "im"
      ],
      [
        "Sim",
        "ba"
      ],
      [
        "C",
        "oc"
      ],
      [
        "Coc",
        "o"
      ],
      [
        "Ma",
        "x"
      ],
      [
        "M",
        "oc"
      ],
      [
        "Moc",
        "hi"
      ],
      [
        "50",
        "8"
      ],
      [
        "92",
        "0"
      ],
      [
        "6",
        "44"
      ],
      [
        "6",
        "51"
      ],
      [
        "6",
        "53"
      ],
      [
        "4",
        "52"
      ],
      [
        "58",
        "0"
      ],
      [
        "93",
        "1"
      ],
      [
        "7",
        "90"
      ],
      [
        "70",
        "0"
      ],
      [
        "44",
        "0"
      ],
      [
        "50",
        "0"
      ],
      [
        "52",
        "0"
      ],
      [
        "71",
        "8"
      ],
      [
        "3",
        "93"
      ],
      [
        "7",
        "92"
      ],
      [
        "51",
        "0"
      ],
      [
        "53",
        "0"
      ],
      [
        "71",
        "0"
      ],
      [
        "4",
        "91"
      ],
      [
        "5",
        "78"
      ],
      [
        "6",
        "78"
      ],
      [
        "7",
        "40"
      ],
      [
        "73",
        "8"
      ],
      [
        "53",
        "1"
      ],
      [
        "42",
        "0"
      ],
      [
        "61",
        "0"
      ],
      [
        "2",
        "78"
      ],
      [
        "6",
        "41"
      ],
      [
        "9",
        "68"
      ],
      [
        "71",
        "1"
      ],
      [
        "6",
        "91"
      ],
      [
        "9",
        "98"
      ],
      [
        "72",
        "3"
      ],
      [
        "43",
        "3"
      ],
      [
        "60",
        "0"
      ],
      [
        "4",
        "58"
      ],
      [
        "4",
        "78"
      ],
      [
        "5",
        "44"
      ],
      [
        "5",
        "63"
      ],
      [
        "8",
        "62"
      ],
      [
        "66",
        "2"
      ],
      [
        "50",
        "3"
      ],
      [
        "2",
        "58"
      ],
      [
        "4",
        "68"
      ],
      [
        "5",
        "90"
      ],
      [
        "6",
        "90"
      ],
      [
        "8",
        "18"
      ],
      [
        "73",
        "0"
      ],
      [
        "72",
        "1"
      ],
      [
        "5",
        "41"
      ],
      [
        "6",
        "93"
      ],
      [
        "9",
        "90"
      ],
      [
        "9",
        "50"
      ],
      [
        "51",
        "1"
      ],
      [
        "71",
        "3"
      ],
      [
        "43",
        "2"
      ],
      [
        "4",
        "63"
      ],
      [
        "5",
        "40"
      ],
      [
        "6",
        "42"
      ],
      [
        "7",
        "63"
      ],
      [
        "8",
        "48"
      ],
      [
        "68",
        "1"
      ],
      [
        "1",
        "91"
      ],
      [
        "2",
        "98"
      ],
      [
        "2",
        "48"
      ],
      [
        "3",
        "78"
      ],
      [
        "4",
        "93"
      ],
      [
        "4",
        "60"
      ],
      [
        "5",
        "58"
      ],
      [
        "5",
        "48"
      ],
      [
        "6",
        "98"
      ],
      [
        "6",
        "48"
      ],
      [
        "7",
        "41"
      ],
      [
        "9",
        "62"
      ],
      [
        "66",
        "8"
      ],
      [
        "73",
        "3"
      ],
      [
        "72",
        "0"
      ],
      [
        "70",
        "8"
      ],
      [
        "43",
        "0"
      ],
      [
        "4",
        "92"
      ],
      [
        "5",
        "92"
      ],
      [
        "7",
        "48"
      ],
      [
        "70",
        "2"
      ],
      [
        "62",
        "0"
      ],
      [
        "43",
        "1"
      ],
      [
        "5",
        "42"
      ],
      [
        "6",
        "52"
      ],
      [
        "8",
        "80"
      ],
      [
        "9",
        "44"
      ],
      [
        "91",
        "1"
      ],
      [
        "51",
        "3"
      ],
      [
        "5",
        "98"
      ],
      [
        "6",
        "40"
      ],
      [
        "7",
        "73"
      ],
      [
        "8",
        "60"
      ],
      [
        "93",
        "0"
      ],
      [
        "71",
        "7"
      ],
      [
        "61",
        "1"
      ],
      [
        "97",
        "7"
      ],
      [
        "2",
        "63"
      ],
      [
        "6",
        "92"
      ],
      [
        "7",
        "91"
      ],
      [
        "7",
        "68"
      ],
      [
        "8",
        "33"
      ],
      [
        "User_2",
        "23"
      ],
      [
        "72",
        "2"
      ],
      [
        "93",
        "3"
      ],
      [
        "41",
        "8"
      ],
      [
        "2",
        "33"
      ],
      [
        "2",
        "18"
      ],
      [
        "5",
        "60"
      ],
      [
        "8",
        "23"
      ],
      [
        "9",
        "48"
      ],
      [
        "User_1",
        "09"
      ],
      [
        "50",
        "1"
      ],
      [
        "50",
        "2"
      ],
      [
        "53",
        "9"
      ],
      [
        "1",
        "63"
      ],
      [
        "2",
        "62"
      ],
      [
        "2",
        "10"
      ],
      [
        "3",
        "18"
      ],
      [
        "3",
        "13"
      ],
      [
        "3",
        "80"
      ],
      [
        "4",
        "66"
      ],
      [
        "4",
        "70"
      ],
      [
        "5",
        "66"
      ],
      [
        "6",
        "73"
      ],
      [
        "8",
        "44"
      ],
      [
        "9",
        "42"
      ],
      [
        "User_6",
        "22"
      ],
      [
        "98",
        "2"
      ],
      [
        "1",
        "41"
      ],
      [
        "1",
        "28"
      ],
      [
        "4",
        "90"
      ],
      [
        "7",
        "52"
      ],
      [
        "8",
        "90"
      ],
      [
        "8",
        "22"
      ],
      [
        "9",
        "78"
      ],
      [
        "9",
        "40"
      ],
      [
        "User_5",
        "20"
      ],
      [
        "72",
        "9"
      ],
      [
        "61",
        "9"
      ],
      [
        "2",
        "51"
      ],
      [
        "2",
        "40"
      ],
      [
        "3",
        "58"
      ],
      [
        "4",
        "73"
      ],
      [
        "4",
        "62"
      ],
      [
        "6",
        "70"
      ],
      [
        "7",
        "78"
      ],
      [
        "8",
        "58"
      ],
      [
        "User_1",
        "04"
      ],
      [
        "User_8",
        "72"
      ],
      [
        "66",
        "5"
      ],
      [
        "43",
        "9"
      ],
      [
        "68",
        "2"
      ],
      [
        "45",
        "7"
      ],
      [
        "67",
        "7"
      ],
      [
        "1",
        "44"
      ],
      [
        "1",
        "52"
      ],
      [
        "1",
        "98"
      ],
      [
        "1",
        "48"
      ],
      [
        "3",
        "90"
      ],
      [
        "3",
        "10"
      ],
      [
        "4",
        "51"
      ],
      [
        "User_9",
        "92"
      ],
      [
        "User_9",
        "97"
      ],
      [
        "User_9",
        "29"
      ],
      [
        "User_9",
        "27"
      ],
      [
        "User_2",
        "38"
      ],
      [
        "User_4",
        "95"
      ],
      [
        "User_7",
        "32"
      ],
      [
        "User_7",
        "76"
      ],
      [
        "65",
        "7"
      ],
      [
        "1",
        "90"
      ],
      [
        "1",
        "42"
      ],
      [
        "1",
        "60"
      ],
      [
        "1",
        "18"
      ],
      [
        "2",
        "91"
      ],
      [
        "2",
        "41"
      ],
      [
        "3",
        "44"
      ],
      [
        "3",
        "48"
      ],
      [
        "5",
        "62"
      ],
      [
        "8",
        "63"
      ],
      [
        "9",
        "58"
      ],
      [
        "9",
        "91"
      ],
      [
        "9",
        "41"
      ],
      [
        "9",
        "63"
      ],
      [
        "User_9",
        "52"
      ],
      [
        "User_9",
        "75"
      ],
      [
        "User_9",
        "96"
      ],
      [
        "User_3",
        "87"
      ],
      [
        "User_6",
        "67"
      ],
      [
        "User_8",
        "23"
      ],
      [
        "User_8",
        "13"
      ],
      [
        "User_4",
        "04"
      ],
      [
        "User_5",
        "39"
      ],
      [
        "53",
        "7"
      ],
      [
        "47",
        "7"
      ],
      [
        "1",
        "58"
      ],
      [
        "1",
        "40"
      ],
      [
        "1",
        "23"
      ],
      [
        "2",
        "92"
      ],
      [
        "2",
        "52"
      ],
      [
        "2",
        "42"
      ],
      [
        "2",
        "20"
      ],
      [
        "3",
        "98"
      ],
      [
        "4",
        "61"
      ],
      [
        "5",
        "52"
      ],
      [
        "5",
        "61"
      ],
      [
        "6",
        "43"
      ],
      [
        "7",
        "66"
      ],
      [
        "7",
        "50"
      ],
      [
        "8",
        "91"
      ],
      [
        "8",
        "41"
      ],
      [
        "8",
        "21"
      ],
      [
        "9",
        "51"
      ],
      [
        "9",
        "70"
      ],
      [
        "User_1",
        "97"
      ],
      [
        "User_9",
        "82"
      ],
      [
        "User_3",
        "30"
      ],
      [
        "User_6",
        "66"
      ],
      [
        "User_6",
        "40"
      ],
      [
        "User_6",
        "14"
      ],
      [
        "User_2",
        "44"
      ],
      [
        "User_2",
        "91"
      ],
      [
        "User_2",
        "41"
      ],
      [
        "User_2",
        "57"
      ],
      [
        "User_8",
        "30"
      ],
      [
        "User_5",
        "97"
      ],
      [
        "53",
        "8"
      ],
      [
        "2",
        "66"
      ],
      [
        "3",
        "20"
      ],
      [
        "3",
        "11"
      ],
      [
        "4",
        "98"
      ],
      [
        "7",
        "70"
      ],
      [
        "7",
        "62"
      ],
      [
        "8",
        "92"
      ],
      [
        "8",
        "20"
      ],
      [
        "8",
        "30"
      ],
      [
        "9",
        "66"
      ],
      [
        "9",
        "72"
      ],
      [
        "9",
        "71"
      ],
      [
        "9",
        "43"
      ],
      [
        "User_1",
        "41"
      ],
      [
        "User_1",
        "95"
      ],
      [
        "User_9",
        "05"
      ],
      [
        "User_3",
        "43"
      ],
      [
        "User_3",
        "94"
      ],
      [
        "User_3",
        "05"
      ],
      [
        "User_6",
        "18"
      ],
      [
        "User_4",
        "50"
      ],
      [
        "User_4",
        "15"
      ],
      [
        "User_4",
        "02"
      ],
      [
        "User_7",
        "91"
      ],
      [
        "User_7",
        "79"
      ],
      [
        "User_5",
        "58"
      ],
      [
        "95",
        "5"
      ],
      [
        "1",
        "92"
      ],
      [
        "1",
        "51"
      ],
      [
        "1",
        "10"
      ],
      [
        "3",
        "51"
      ],
      [
        "3",
        "60"
      ],
      [
        "5",
        "93"
      ],
      [
        "5",
        "70"
      ],
      [
        "6",
        "50"
      ],
      [
        "6",
        "71"
      ],
      [
        "6",
        "47"
      ],
      [
        "7",
        "98"
      ],
      [
        "7",
        "60"
      ],
      [
        "8",
        "73"
      ],
      [
        "8",
        "40"
      ],
      [
        "User_1",
        "72"
      ],
      [
        "User_1",
        "68"
      ],
      [
        "User_1",
        "28"
      ],
      [
        "User_1",
        "33"
      ],
      [
        "User_1",
        "85"
      ],
      [
        "User_9",
        "90"
      ],
      [
        "User_9",
        "55"
      ],
      [
        "User_9",
        "39"
      ],
      [
        "User_3",
        "98"
      ],
      [
        "User_3",
        "35"
      ],
      [
        "User_6",
        "92"
      ],
      [
        "User_6",
        "36"
      ],
      [
        "User_6",
        "06"
      ],
      [
        "User_8",
        "44"
      ],
      [
        "User_4",
        "36"
      ],
      [
        "User_5",
        "29"
      ],
      [
        "78",
        "0"
      ],
      [
        "2",
        "44"
      ],
      [
        "2",
        "72"
      ],
      [
        "2",
        "60"
      ],
      [
        "2",
        "28"
      ],
      [
        "3",
        "41"
      ],
      [
        "3",
        "40"
      ],
      [
        "3",
        "23"
      ],
      [
        "4",
        "65"
      ],
      [
        "7",
        "44"
      ],
      [
        "7",
        "93"
      ],
      [
        "7",
        "53"
      ],
      [
        "7",
        "42"
      ],
      [
        "8",
        "98"
      ],
      [
        "8",
        "71"
      ],
      [
        "8",
        "61"
      ],
      [
        "9",
        "73"
      ],
      [
        "User_1",
        "98"
      ],
      [
        "User_9",
        "64"
      ],
      [
        "User_9",
        "56"
      ],
      [
        "User_9",
        "76"
      ],
      [
        "User_3",
        "91"
      ],
      [
        "User_3",
        "51"
      ],
      [
        "User_3",
        "95"
      ],
      [
        "User_3",
        "76"
      ],
      [
        "User_6",
        "58"
      ],
      [
        "User_6",
        "63"
      ],
      [
        "User_6",
        "02"
      ],
      [
        "User_2",
        "94"
      ],
      [
        "User_2",
        "46"
      ],
      [
        "User_2",
        "19"
      ],
      [
        "User_2",
        "84"
      ],
      [
        "User_8",
        "66"
      ],
      [
        "User_8",
        "33"
      ],
      [
        "User_4",
        "44"
      ],
      [
        "User_4",
        "43"
      ],
      [
        "User_4",
        "54"
      ],
      [
        "User_7",
        "97"
      ],
      [
        "User_7",
        "65"
      ],
      [
        "User_5",
        "28"
      ],
      [
        "User_5",
        "87"
      ],
      [
        "User_5",
        "16"
      ],
      [
        "User_5",
        "26"
      ],
      [
        "68",
        "0"
      ],
      [
        "1",
        "50"
      ],
      [
        "1",
        "70"
      ],
      [
        "1",
        "20"
      ],
      [
        "1",
        "45"
      ],
      [
        "2",
        "90"
      ],
      [
        "2",
        "13"
      ],
      [
        "3",
        "28"
      ],
      [
        "4",
        "50"
      ],
      [
        "4",
        "71"
      ],
      [
        "5",
        "91"
      ],
      [
        "5",
        "51"
      ],
      [
        "6",
        "58"
      ],
      [
        "9",
        "61"
      ],
      [
        "User_1",
        "73"
      ],
      [
        "User_1",
        "51"
      ],
      [
        "User_1",
        "65"
      ],
      [
        "User_1",
        "55"
      ],
      [
        "User_1",
        "76"
      ],
      [
        "User_1",
        "84"
      ],
      [
        "User_9",
        "62"
      ],
      [
        "User_9",
        "59"
      ],
      [
        "User_3",
        "23"
      ],
      [
        "User_3",
        "69"
      ],
      [
        "User_3",
        "16"
      ],
      [
        "User_3",
        "34"
      ],
      [
        "User_3",
        "86"
      ],
      [
        "User_6",
        "99"
      ],
      [
        "User_6",
        "11"
      ],
      [
        "User_6",
        "77"
      ],
      [
        "User_6",
        "87"
      ],
      [
        "User_6",
        "16"
      ],
      [
        "User_6",
        "04"
      ],
      [
        "User_2",
        "42"
      ],
      [
        "User_2",
        "45"
      ],
      [
        "User_2",
        "80"
      ],
      [
        "User_2",
        "59"
      ],
      [
        "User_2",
        "87"
      ],
      [
        "User_2",
        "34"
      ],
      [
        "User_8",
        "51"
      ],
      [
        "User_8",
        "11"
      ],
      [
        "User_8",
        "77"
      ],
      [
        "User_8",
        "56"
      ],
      [
        "User_8",
        "39"
      ],
      [
        "User_8",
        "86"
      ],
      [
        "User_4",
        "92"
      ],
      [
        "User_4",
        "60"
      ],
      [
        "User_4",
        "10"
      ],
      [
        "User_4",
        "80"
      ],
      [
        "User_4",
        "94"
      ],
      [
        "User_4",
        "39"
      ],
      [
        "User_4",
        "16"
      ],
      [
        "User_7",
        "52"
      ],
      [
        "User_7",
        "58"
      ],
      [
        "User_7",
        "98"
      ],
      [
        "User_7",
        "95"
      ],
      [
        "User_7",
        "29"
      ],
      [
        "User_5",
        "42"
      ],
      [
        "User_5",
        "54"
      ],
      [
        "3",
        "92"
      ],
      [
        "3",
        "52"
      ],
      [
        "3",
        "62"
      ],
      [
        "3",
        "63"
      ],
      [
        "4",
        "53"
      ],
      [
        "5",
        "73"
      ],
      [
        "5",
        "71"
      ],
      [
        "5",
        "43"
      ],
      [
        "5",
        "47"
      ],
      [
        "6",
        "72"
      ],
      [
        "8",
        "10"
      ],
      [
        "8",
        "11"
      ],
      [
        "9",
        "92"
      ],
      [
        "9",
        "53"
      ],
      [
        "User_1",
        "10"
      ],
      [
        "User_1",
        "18"
      ],
      [
        "User_1",
        "24"
      ],
      [
        "User_9",
        "44"
      ],
      [
        "User_9",
        "60"
      ],
      [
        "User_9",
        "87"
      ],
      [
        "User_3",
        "58"
      ],
      [
        "User_3",
        "39"
      ],
      [
        "User_3",
        "89"
      ],
      [
        "User_6",
        "12"
      ],
      [
        "User_6",
        "54"
      ],
      [
        "User_2",
        "48"
      ],
      [
        "User_2",
        "40"
      ],
      [
        "User_2",
        "20"
      ],
      [
        "User_2",
        "11"
      ],
      [
        "User_8",
        "90"
      ],
      [
        "User_8",
        "91"
      ],
      [
        "User_8",
        "40"
      ],
      [
        "User_8",
        "67"
      ],
      [
        "User_8",
        "38"
      ],
      [
        "User_8",
        "82"
      ],
      [
        "User_8",
        "36"
      ],
      [
        "User_4",
        "70"
      ],
      [
        "User_4",
        "81"
      ],
      [
        "User_4",
        "00"
      ],
      [
        "User_4",
        "74"
      ],
      [
        "User_4",
        "35"
      ],
      [
        "User_4",
        "26"
      ],
      [
        "User_7",
        "67"
      ],
      [
        "User_7",
        "37"
      ],
      [
        "User_5",
        "09"
      ],
      [
        "67",
        "9"
      ],
      [
        "1",
        "66"
      ],
      [
        "1",
        "13"
      ],
      [
        "2",
        "70"
      ],
      [
        "2",
        "23"
      ],
      [
        "3",
        "91"
      ],
      [
        "3",
        "68"
      ],
      [
        "3",
        "21"
      ],
      [
        "4",
        "99"
      ],
      [
        "6",
        "99"
      ],
      [
        "7",
        "58"
      ],
      [
        "7",
        "51"
      ],
      [
        "8",
        "52"
      ],
      [
        "9",
        "93"
      ],
      [
        "User_1",
        "50"
      ],
      [
        "User_1",
        "93"
      ],
      [
        "User_1",
        "20"
      ],
      [
        "User_1",
        "67"
      ],
      [
        "User_1",
        "56"
      ],
      [
        "User_1",
        "29"
      ],
      [
        "User_1",
        "25"
      ],
      [
        "User_1",
        "14"
      ],
      [
        "User_1",
        "06"
      ],
      [
        "User_9",
        "13"
      ],
      [
        "User_9",
        "25"
      ],
      [
        "User_9",
        "84"
      ],
      [
        "User_3",
        "66"
      ],
      [
        "User_3",
        "75"
      ],
      [
        "User_3",
        "06"
      ],
      [
        "User_6",
        "78"
      ],
      [
        "User_6",
        "45"
      ],
      [
        "User_6",
        "83"
      ],
      [
        "User_6",
        "96"
      ],
      [
        "User_6",
        "01"
      ],
      [
        "User_6",
        "07"
      ],
      [
        "User_2",
        "33"
      ],
      [
        "User_2",
        "95"
      ],
      [
        "User_2",
        "13"
      ],
      [
        "User_2",
        "81"
      ],
      [
        "User_2",
        "14"
      ],
      [
        "User_8",
        "41"
      ],
      [
        "User_8",
        "45"
      ],
      [
        "User_8",
        "19"
      ],
      [
        "User_8",
        "85"
      ],
      [
        "User_4",
        "64"
      ],
      [
        "User_4",
        "76"
      ],
      [
        "User_4",
        "85"
      ],
      [
        "User_7",
        "33"
      ],
      [
        "User_7",
        "30"
      ],
      [
        "User_7",
        "57"
      ],
      [
        "User_7",
        "74"
      ],
      [
        "User_7",
        "39"
      ],
      [
        "User_7",
        "26"
      ],
      [
        "User_7",
        "34"
      ],
      [
        "User_7",
        "06"
      ],
      [
        "User_5",
        "40"
      ],
      [
        "User_5",
        "10"
      ],
      [
        "User_5",
        "88"
      ],
      [
        "User_5",
        "07"
      ],
      [
        "1",
        "62"
      ],
      [
        "1",
        "33"
      ],
      [
        "2",
        "73"
      ],
      [
        "2",
        "43"
      ],
      [
        "2",
        "61"
      ],
      [
        "3",
        "66"
      ],
      [
        "5",
        "72"
      ],
      [
        "6",
        "45"
      ],
      [
        "7",
        "61"
      ],
      [
        "8",
        "93"
      ],
      [
        "8",
        "68"
      ],
      [
        "9",
        "52"
      ],
      [
        "9",
        "60"
      ],
      [
        "9",
        "65"
      ],
      [
        "9",
        "45"
      ],
      [
        "User_1",
        "62"
      ],
      [
        "User_1",
        "60"
      ],
      [
        "User_1",
        "38"
      ],
      [
        "User_1",
        "36"
      ],
      [
        "User_1",
        "34"
      ],
      [
        "User_1",
        "07"
      ],
      [
        "User_9",
        "58"
      ],
      [
        "User_9",
        "98"
      ],
      [
        "User_9",
        "93"
      ],
      [
        "User_9",
        "00"
      ],
      [
        "User_9",
        "36"
      ],
      [
        "User_9",
        "02"
      ],
      [
        "User_9",
        "04"
      ],
      [
        "User_3",
        "99"
      ],
      [
        "User_3",
        "55"
      ],
      [
        "User_3",
        "21"
      ],
      [
        "User_3",
        "46"
      ],
      [
        "User_3",
        "12"
      ],
      [
        "User_3",
        "54"
      ],
      [
        "User_3",
        "26"
      ],
      [
        "User_3",
        "27"
      ],
      [
        "User_3",
        "02"
      ],
      [
        "User_6",
        "61"
      ],
      [
        "User_6",
        "49"
      ],
      [
        "User_6",
        "19"
      ],
      [
        "User_6",
        "84"
      ],
      [
        "User_6",
        "03"
      ],
      [
        "User_2",
        "90"
      ],
      [
        "User_2",
        "31"
      ],
      [
        "User_2",
        "12"
      ],
      [
        "User_2",
        "89"
      ],
      [
        "User_2",
        "05"
      ],
      [
        "User_8",
        "63"
      ],
      [
        "User_8",
        "81"
      ],
      [
        "User_8",
        "74"
      ],
      [
        "User_8",
        "29"
      ],
      [
        "User_8",
        "24"
      ],
      [
        "User_8",
        "05"
      ],
      [
        "User_4",
        "52"
      ],
      [
        "User_4",
        "99"
      ],
      [
        "User_4",
        "59"
      ],
      [
        "User_4",
        "96"
      ],
      [
        "User_4",
        "03"
      ],
      [
        "User_7",
        "23"
      ],
      [
        "User_7",
        "99"
      ],
      [
        "User_7",
        "49"
      ],
      [
        "User_7",
        "64"
      ],
      [
        "User_7",
        "85"
      ],
      [
        "User_7",
        "09"
      ],
      [
        "User_5",
        "90"
      ],
      [
        "User_5",
        "52"
      ],
      [
        "User_5",
        "72"
      ],
      [
        "User_5",
        "95"
      ],
      [
        "User_5",
        "45"
      ],
      [
        "User_5",
        "81"
      ],
      [
        "User_5",
        "32"
      ],
      [
        "User_5",
        "83"
      ],
      [
        "User_5",
        "35"
      ],
      [
        "1",
        "71"
      ],
      [
        "1",
        "43"
      ],
      [
        "2",
        "68"
      ],
      [
        "3",
        "73"
      ],
      [
        "3",
        "70"
      ],
      [
        "3",
        "42"
      ],
      [
        "3",
        "61"
      ],
      [
        "5",
        "68"
      ],
      [
        "7",
        "72"
      ],
      [
        "7",
        "43"
      ],
      [
        "7",
        "69"
      ],
      [
        "8",
        "66"
      ],
      [
        "8",
        "51"
      ],
      [
        "8",
        "42"
      ],
      [
        "8",
        "28"
      ],
      [
        "User_1",
        "44"
      ],
      [
        "User_1",
        "78"
      ],
      [
        "User_1",
        "61"
      ],
      [
        "User_1",
        "75"
      ],
      [
        "User_1",
        "69"
      ],
      [
        "User_1",
        "94"
      ],
      [
        "User_1",
        "57"
      ],
      [
        "User_1",
        "82"
      ],
      [
        "User_1",
        "89"
      ],
      [
        "User_1",
        "15"
      ],
      [
        "User_1",
        "02"
      ],
      [
        "User_9",
        "78"
      ],
      [
        "User_9",
        "28"
      ],
      [
        "User_9",
        "33"
      ],
      [
        "User_9",
        "10"
      ],
      [
        "User_9",
        "99"
      ],
      [
        "User_9",
        "30"
      ],
      [
        "User_9",
        "69"
      ],
      [
        "User_9",
        "46"
      ],
      [
        "User_9",
        "16"
      ],
      [
        "User_3",
        "33"
      ],
      [
        "User_3",
        "45"
      ],
      [
        "User_3",
        "80"
      ],
      [
        "User_3",
        "22"
      ],
      [
        "User_3",
        "49"
      ],
      [
        "User_3",
        "32"
      ],
      [
        "User_3",
        "59"
      ],
      [
        "User_6",
        "50"
      ],
      [
        "User_6",
        "73"
      ],
      [
        "User_6",
        "41"
      ],
      [
        "User_6",
        "42"
      ],
      [
        "User_6",
        "20"
      ],
      [
        "User_6",
        "21"
      ],
      [
        "User_6",
        "39"
      ],
      [
        "User_6",
        "89"
      ],
      [
        "User_6",
        "15"
      ],
      [
        "User_2",
        "73"
      ],
      [
        "User_2",
        "78"
      ],
      [
        "User_2",
        "67"
      ],
      [
        "User_2",
        "49"
      ],
      [
        "User_2",
        "00"
      ],
      [
        "User_2",
        "25"
      ],
      [
        "User_2",
        "09"
      ],
      [
        "User_2",
        "01"
      ],
      [
        "User_8",
        "58"
      ],
      [
        "User_8",
        "97"
      ],
      [
        "User_8",
        "12"
      ],
      [
        "User_8",
        "54"
      ],
      [
        "User_8",
        "25"
      ],
      [
        "User_8",
        "08"
      ],
      [
        "User_8",
        "04"
      ],
      [
        "User_4",
        "90"
      ],
      [
        "User_4",
        "66"
      ],
      [
        "User_4",
        "73"
      ],
      [
        "User_4",
        "61"
      ],
      [
        "User_4",
        "13"
      ],
      [
        "User_4",
        "88"
      ],
      [
        "User_4",
        "87"
      ],
      [
        "User_7",
        "44"
      ],
      [
        "User_7",
        "43"
      ],
      [
        "User_7",
        "68"
      ],
      [
        "User_7",
        "77"
      ],
      [
        "User_7",
        "31"
      ],
      [
        "User_7",
        "12"
      ],
      [
        "User_7",
        "08"
      ],
      [
        "User_5",
        "33"
      ],
      [
        "User_5",
        "75"
      ],
      [
        "User_5",
        "46"
      ],
      [
        "User_5",
        "89"
      ],
      [
        "95",
        "4"
      ],
      [
        "95",
        "7"
      ],
      [
        "97",
        "4"
      ],
      [
        "75",
        "7"
      ],
      [
        "49",
        "6"
      ],
      [
        "2",
        "47"
      ],
      [
        "2",
        "11"
      ],
      [
        "5",
        "50"
      ],
      [
        "8",
        "72"
      ],
      [
        "8",
        "45"
      ],
      [
        "User_1",
        "42"
      ],
      [
        "User_1",
        "40"
      ],
      [
        "User_1",
        "23"
      ],
      [
        "User_1",
        "77"
      ],
      [
        "User_1",
        "17"
      ],
      [
        "User_1",
        "03"
      ],
      [
        "User_9",
        "66"
      ],
      [
        "User_9",
        "91"
      ],
      [
        "User_9",
        "72"
      ],
      [
        "User_9",
        "53"
      ],
      [
        "User_9",
        "22"
      ],
      [
        "User_9",
        "88"
      ],
      [
        "User_9",
        "49"
      ],
      [
        "User_9",
        "79"
      ],
      [
        "User_9",
        "54"
      ],
      [
        "User_9",
        "19"
      ],
      [
        "User_3",
        "52"
      ],
      [
        "User_3",
        "73"
      ],
      [
        "User_3",
        "71"
      ],
      [
        "User_3",
        "10"
      ],
      [
        "User_3",
        "82"
      ],
      [
        "User_3",
        "00"
      ],
      [
        "User_6",
        "70"
      ],
      [
        "User_6",
        "62"
      ],
      [
        "User_6",
        "10"
      ],
      [
        "User_6",
        "97"
      ],
      [
        "User_6",
        "64"
      ],
      [
        "User_6",
        "08"
      ],
      [
        "User_2",
        "92"
      ],
      [
        "User_2",
        "93"
      ],
      [
        "User_2",
        "28"
      ],
      [
        "User_2",
        "88"
      ],
      [
        "User_2",
        "64"
      ],
      [
        "User_2",
        "74"
      ],
      [
        "User_2",
        "16"
      ],
      [
        "User_8",
        "92"
      ],
      [
        "User_8",
        "52"
      ],
      [
        "User_8",
        "98"
      ],
      [
        "User_8",
        "48"
      ],
      [
        "User_8",
        "75"
      ],
      [
        "User_8",
        "69"
      ],
      [
        "User_8",
        "00"
      ],
      [
        "User_8",
        "89"
      ],
      [
        "User_8",
        "16"
      ],
      [
        "User_4",
        "98"
      ],
      [
        "User_4",
        "93"
      ],
      [
        "User_4",
        "42"
      ],
      [
        "User_4",
        "40"
      ],
      [
        "User_4",
        "12"
      ],
      [
        "User_7",
        "66"
      ],
      [
        "User_7",
        "78"
      ],
      [
        "User_7",
        "20"
      ],
      [
        "User_7",
        "38"
      ],
      [
        "User_7",
        "16"
      ],
      [
        "User_7",
        "17"
      ],
      [
        "User_7",
        "04"
      ],
      [
        "User_5",
        "44"
      ],
      [
        "User_5",
        "48"
      ],
      [
        "User_5",
        "00"
      ],
      [
        "User_5",
        "36"
      ],
      [
        "User_5",
        "24"
      ],
      [
        "91",
        "0"
      ],
      [
        "41",
        "0"
      ],
      [
        "97",
        "9"
      ],
      [
        "65",
        "9"
      ],
      [
        "1",
        "53"
      ],
      [
        "2",
        "50"
      ],
      [
        "7",
        "99"
      ],
      [
        "7",
        "94"
      ],
      [
        "8",
        "70"
      ],
      [
        "8",
        "13"
      ],
      [
        "8",
        "38"
      ],
      [
        "8",
        "32"
      ],
      [
        "User_1",
        "91"
      ],
      [
        "User_1",
        "63"
      ],
      [
        "User_1",
        "30"
      ],
      [
        "User_1",
        "49"
      ],
      [
        "User_1",
        "64"
      ],
      [
        "User_1",
        "12"
      ],
      [
        "User_1",
        "79"
      ],
      [
        "User_1",
        "27"
      ],
      [
        "User_1",
        "08"
      ],
      [
        "User_9",
        "70"
      ],
      [
        "User_9",
        "41"
      ],
      [
        "User_9",
        "40"
      ],
      [
        "User_9",
        "65"
      ],
      [
        "User_9",
        "45"
      ],
      [
        "User_9",
        "37"
      ],
      [
        "User_9",
        "35"
      ],
      [
        "User_9",
        "14"
      ],
      [
        "User_9",
        "86"
      ],
      [
        "User_9",
        "09"
      ],
      [
        "User_3",
        "78"
      ],
      [
        "User_3",
        "70"
      ],
      [
        "User_3",
        "61"
      ],
      [
        "User_3",
        "28"
      ],
      [
        "User_3",
        "97"
      ],
      [
        "User_3",
        "47"
      ],
      [
        "User_3",
        "13"
      ],
      [
        "User_3",
        "64"
      ],
      [
        "User_3",
        "81"
      ],
      [
        "User_3",
        "31"
      ],
      [
        "User_3",
        "15"
      ],
      [
        "User_3",
        "84"
      ],
      [
        "User_3",
        "09"
      ],
      [
        "User_3",
        "08"
      ],
      [
        "User_6",
        "44"
      ],
      [
        "User_6",
        "52"
      ],
      [
        "User_6",
        "17"
      ],
      [
        "User_2",
        "51"
      ],
      [
        "User_2",
        "98"
      ],
      [
        "User_2",
        "61"
      ],
      [
        "User_2",
        "65"
      ],
      [
        "User_2",
        "83"
      ],
      [
        "User_2",
        "29"
      ],
      [
        "User_2",
        "15"
      ],
      [
        "User_2",
        "37"
      ],
      [
        "User_2",
        "85"
      ],
      [
        "User_2",
        "17"
      ],
      [
        "User_8",
        "73"
      ],
      [
        "User_8",
        "68"
      ],
      [
        "User_8",
        "61"
      ],
      [
        "User_8",
        "28"
      ],
      [
        "User_8",
        "10"
      ],
      [
        "User_8",
        "20"
      ],
      [
        "User_8",
        "18"
      ],
      [
        "User_8",
        "31"
      ],
      [
        "User_8",
        "35"
      ],
      [
        "User_8",
        "02"
      ],
      [
        "User_8",
        "03"
      ],
      [
        "User_4",
        "48"
      ],
      [
        "User_4",
        "23"
      ],
      [
        "User_4",
        "11"
      ],
      [
        "User_4",
        "30"
      ],
      [
        "User_4",
        "49"
      ],
      [
        "User_4",
        "69"
      ],
      [
        "User_4",
        "46"
      ],
      [
        "User_4",
        "34"
      ],
      [
        "User_4",
        "08"
      ],
      [
        "User_4",
        "07"
      ],
      [
        "User_7",
        "73"
      ],
      [
        "User_7",
        "53"
      ],
      [
        "User_7",
        "48"
      ],
      [
        "User_7",
        "63"
      ],
      [
        "User_7",
        "47"
      ],
      [
        "User_7",
        "11"
      ],
      [
        "User_7",
        "55"
      ],
      [
        "User_7",
        "21"
      ],
      [
        "User_7",
        "81"
      ],
      [
        "User_7",
        "46"
      ],
      [
        "User_7",
        "19"
      ],
      [
        "User_5",
        "50"
      ],
      [
        "User_5",
        "93"
      ],
      [
        "User_5",
        "18"
      ],
      [
        "User_5",
        "23"
      ],
      [
        "User_5",
        "47"
      ],
      [
        "User_5",
        "30"
      ],
      [
        "User_5",
        "49"
      ],
      [
        "User_5",
        "31"
      ],
      [
        "User_5",
        "34"
      ],
      [
        "User_5",
        "01"
      ],
      [
        "67",
        "4"
      ],
      [
        "80",
        "0"
      ],
      [
        "2",
        "93"
      ],
      [
        "3",
        "53"
      ],
      [
        "3",
        "95"
      ],
      [
        "4",
        "72"
      ],
      [
        "5",
        "69"
      ],
      [
        "8",
        "43"
      ],
      [
        "8",
        "65"
      ],
      [
        "8",
        "31"
      ],
      [
        "User_1",
        "66"
      ],
      [
        "User_1",
        "99"
      ],
      [
        "User_1",
        "21"
      ],
      [
        "User_1",
        "81"
      ],
      [
        "User_1",
        "74"
      ],
      [
        "User_1",
        "39"
      ],
      [
        "User_1",
        "19"
      ],
      [
        "User_1",
        "35"
      ],
      [
        "User_1",
        "26"
      ],
      [
        "User_1",
        "86"
      ],
      [
        "User_1",
        "01"
      ],
      [
        "User_9",
        "48"
      ],
      [
        "User_9",
        "43"
      ],
      [
        "User_9",
        "47"
      ],
      [
        "User_9",
        "21"
      ],
      [
        "User_9",
        "85"
      ],
      [
        "User_9",
        "03"
      ],
      [
        "User_9",
        "07"
      ],
      [
        "User_3",
        "93"
      ],
      [
        "User_3",
        "62"
      ],
      [
        "User_3",
        "88"
      ],
      [
        "User_3",
        "11"
      ],
      [
        "User_3",
        "38"
      ],
      [
        "User_3",
        "57"
      ],
      [
        "User_3",
        "79"
      ],
      [
        "User_3",
        "24"
      ],
      [
        "User_3",
        "03"
      ],
      [
        "User_6",
        "98"
      ],
      [
        "User_6",
        "95"
      ],
      [
        "User_6",
        "13"
      ],
      [
        "User_6",
        "75"
      ],
      [
        "User_6",
        "30"
      ],
      [
        "User_6",
        "55"
      ],
      [
        "User_6",
        "57"
      ],
      [
        "User_6",
        "46"
      ],
      [
        "User_6",
        "56"
      ],
      [
        "User_6",
        "74"
      ],
      [
        "User_6",
        "26"
      ],
      [
        "User_6",
        "34"
      ],
      [
        "User_6",
        "09"
      ],
      [
        "User_2",
        "70"
      ],
      [
        "User_2",
        "63"
      ],
      [
        "User_2",
        "86"
      ],
      [
        "User_2",
        "02"
      ],
      [
        "User_2",
        "03"
      ],
      [
        "User_2",
        "07"
      ],
      [
        "User_8",
        "53"
      ],
      [
        "User_8",
        "62"
      ],
      [
        "User_8",
        "49"
      ],
      [
        "User_8",
        "55"
      ],
      [
        "User_8",
        "59"
      ],
      [
        "User_8",
        "37"
      ],
      [
        "User_4",
        "68"
      ],
      [
        "User_4",
        "65"
      ],
      [
        "User_4",
        "47"
      ],
      [
        "User_4",
        "77"
      ],
      [
        "User_4",
        "56"
      ],
      [
        "User_4",
        "29"
      ],
      [
        "User_4",
        "25"
      ],
      [
        "User_4",
        "24"
      ],
      [
        "User_7",
        "40"
      ],
      [
        "User_7",
        "82"
      ],
      [
        "User_7",
        "00"
      ],
      [
        "User_7",
        "89"
      ],
      [
        "User_7",
        "87"
      ],
      [
        "User_7",
        "36"
      ],
      [
        "User_7",
        "02"
      ],
      [
        "User_7",
        "03"
      ],
      [
        "User_5",
        "92"
      ],
      [
        "User_5",
        "73"
      ],
      [
        "User_5",
        "91"
      ],
      [
        "User_5",
        "43"
      ],
      [
        "User_5",
        "61"
      ],
      [
        "User_5",
        "37"
      ],
      [
        "User_5",
        "27"
      ],
      [
        "User_5",
        "14"
      ],
      [
        "User_5",
        "86"
      ],
      [
        "User_5",
        "03"
      ],
      [
        "90",
        "0"
      ],
      [
        "50",
        "5"
      ],
      [
        "22",
        "7"
      ],
      [
        "1",
        "93"
      ],
      [
        "1",
        "95"
      ],
      [
        "1",
        "65"
      ],
      [
        "1",
        "75"
      ],
      [
        "2",
        "71"
      ],
      [
        "2",
        "77"
      ],
      [
        "5",
        "53"
      ],
      [
        "5",
        "45"
      ],
      [
        "5",
        "75"
      ],
      [
        "6",
        "95"
      ],
      [
        "7",
        "71"
      ],
      [
        "User_1",
        "58"
      ],
      [
        "User_1",
        "70"
      ],
      [
        "User_1",
        "45"
      ],
      [
        "User_1",
        "47"
      ],
      [
        "User_1",
        "87"
      ],
      [
        "User_9",
        "20"
      ],
      [
        "User_9",
        "67"
      ],
      [
        "User_9",
        "80"
      ],
      [
        "User_9",
        "38"
      ],
      [
        "User_9",
        "57"
      ],
      [
        "User_9",
        "34"
      ],
      [
        "User_3",
        "92"
      ],
      [
        "User_3",
        "50"
      ],
      [
        "User_3",
        "72"
      ],
      [
        "User_3",
        "83"
      ],
      [
        "User_6",
        "28"
      ],
      [
        "User_6",
        "33"
      ],
      [
        "User_6",
        "88"
      ],
      [
        "User_6",
        "38"
      ],
      [
        "User_6",
        "81"
      ],
      [
        "User_6",
        "82"
      ],
      [
        "User_2",
        "66"
      ],
      [
        "User_2",
        "43"
      ],
      [
        "User_2",
        "30"
      ],
      [
        "User_2",
        "77"
      ],
      [
        "User_2",
        "24"
      ],
      [
        "User_2",
        "96"
      ],
      [
        "User_2",
        "08"
      ],
      [
        "User_2",
        "06"
      ],
      [
        "User_8",
        "93"
      ],
      [
        "User_8",
        "95"
      ],
      [
        "User_8",
        "47"
      ],
      [
        "User_8",
        "99"
      ],
      [
        "User_8",
        "83"
      ],
      [
        "User_8",
        "26"
      ],
      [
        "User_4",
        "63"
      ],
      [
        "User_4",
        "33"
      ],
      [
        "User_4",
        "97"
      ],
      [
        "User_4",
        "75"
      ],
      [
        "User_4",
        "55"
      ],
      [
        "User_4",
        "01"
      ],
      [
        "User_7",
        "92"
      ],
      [
        "User_7",
        "51"
      ],
      [
        "User_7",
        "62"
      ],
      [
        "User_7",
        "60"
      ],
      [
        "User_7",
        "10"
      ],
      [
        "User_7",
        "13"
      ],
      [
        "User_7",
        "35"
      ],
      [
        "User_7",
        "24"
      ],
      [
        "User_7",
        "14"
      ],
      [
        "User_5",
        "70"
      ],
      [
        "User_5",
        "71"
      ],
      [
        "User_5",
        "60"
      ],
      [
        "User_5",
        "67"
      ],
      [
        "User_5",
        "55"
      ],
      [
        "User_5",
        "38"
      ],
      [
        "User_5",
        "94"
      ],
      [
        "User_5",
        "57"
      ],
      [
        "User_5",
        "82"
      ],
      [
        "User_5",
        "79"
      ],
      [
        "User_5",
        "76"
      ],
      [
        "User_5",
        "85"
      ],
      [
        "User_5",
        "04"
      ],
      [
        "92",
        "9"
      ],
      [
        "91",
        "8"
      ],
      [
        "98",
        "1"
      ],
      [
        "98",
        "5"
      ],
      [
        "30",
        "0"
      ],
      [
        "57",
        "4"
      ],
      [
        "1",
        "73"
      ],
      [
        "1",
        "78"
      ],
      [
        "1",
        "61"
      ],
      [
        "1",
        "22"
      ],
      [
        "3",
        "65"
      ],
      [
        "5",
        "77"
      ],
      [
        "6",
        "49"
      ],
      [
        "7",
        "97"
      ],
      [
        "7",
        "45"
      ],
      [
        "8",
        "53"
      ],
      [
        "8",
        "78"
      ],
      [
        "8",
        "75"
      ],
      [
        "9",
        "64"
      ],
      [
        "User_1",
        "53"
      ],
      [
        "User_1",
        "71"
      ],
      [
        "User_1",
        "80"
      ],
      [
        "User_1",
        "88"
      ],
      [
        "User_1",
        "32"
      ],
      [
        "User_9",
        "50"
      ],
      [
        "User_9",
        "42"
      ],
      [
        "User_9",
        "23"
      ],
      [
        "User_9",
        "81"
      ],
      [
        "User_9",
        "94"
      ],
      [
        "User_9",
        "32"
      ],
      [
        "User_9",
        "15"
      ],
      [
        "User_9",
        "17"
      ],
      [
        "User_9",
        "26"
      ],
      [
        "User_9",
        "06"
      ],
      [
        "User_3",
        "90"
      ],
      [
        "User_3",
        "53"
      ],
      [
        "User_3",
        "60"
      ],
      [
        "User_3",
        "20"
      ],
      [
        "User_3",
        "77"
      ],
      [
        "User_3",
        "96"
      ],
      [
        "User_6",
        "90"
      ],
      [
        "User_6",
        "91"
      ],
      [
        "User_6",
        "80"
      ],
      [
        "User_6",
        "94"
      ],
      [
        "User_6",
        "32"
      ],
      [
        "User_6",
        "00"
      ],
      [
        "User_6",
        "29"
      ],
      [
        "User_6",
        "24"
      ],
      [
        "User_6",
        "86"
      ],
      [
        "User_2",
        "53"
      ],
      [
        "User_2",
        "71"
      ],
      [
        "User_2",
        "18"
      ],
      [
        "User_2",
        "22"
      ],
      [
        "User_2",
        "54"
      ],
      [
        "User_2",
        "56"
      ],
      [
        "User_2",
        "36"
      ],
      [
        "User_8",
        "65"
      ],
      [
        "User_8",
        "21"
      ],
      [
        "User_8",
        "15"
      ],
      [
        "User_8",
        "87"
      ],
      [
        "User_8",
        "17"
      ],
      [
        "User_8",
        "27"
      ],
      [
        "User_8",
        "01"
      ],
      [
        "User_4",
        "41"
      ],
      [
        "User_4",
        "71"
      ],
      [
        "User_4",
        "62"
      ],
      [
        "User_4",
        "28"
      ],
      [
        "User_4",
        "18"
      ],
      [
        "User_4",
        "79"
      ],
      [
        "User_4",
        "84"
      ],
      [
        "User_4",
        "09"
      ],
      [
        "User_7",
        "90"
      ],
      [
        "User_7",
        "45"
      ],
      [
        "User_7",
        "22"
      ],
      [
        "User_7",
        "75"
      ],
      [
        "User_7",
        "27"
      ],
      [
        "User_5",
        "98"
      ],
      [
        "User_5",
        "78"
      ],
      [
        "User_5",
        "41"
      ],
      [
        "User_5",
        "68"
      ],
      [
        "User_5",
        "13"
      ],
      [
        "User_5",
        "80"
      ],
      [
        "User_5",
        "11"
      ],
      [
        "User_5",
        "77"
      ],
      [
        "User_5",
        "21"
      ],
      [
        "User_5",
        "12"
      ],
      [
        "User_5",
        "19"
      ],
      [
        "User_5",
        "15"
      ],
      [
        "User_5",
        "25"
      ],
      [
        "User_5",
        "96"
      ],
      [
        "58",
        "6"
      ],
      [
        "58",
        "7"
      ],
      [
        "66",
        "0"
      ],
      [
        "98",
        "0"
      ],
      [
        "62",
        "3"
      ],
      [
        "40",
        "0"
      ],
      [
        "99",
        "9"
      ],
      [
        "69",
        "6"
      ],
      [
        "1",
        "72"
      ],
      [
        "1",
        "68"
      ],
      [
        "1",
        "47"
      ],
      [
        "1",
        "55"
      ],
      [
        "2",
        "53"
      ],
      [
        "3",
        "43"
      ],
      [
        "3",
        "47"
      ],
      [
        "7",
        "64"
      ],
      [
        "User_1",
        "92"
      ],
      [
        "User_1",
        "52"
      ],
      [
        "User_1",
        "00"
      ],
      [
        "User_9",
        "71"
      ],
      [
        "User_9",
        "61"
      ],
      [
        "User_9",
        "63"
      ],
      [
        "User_9",
        "95"
      ],
      [
        "User_9",
        "31"
      ],
      [
        "User_3",
        "44"
      ],
      [
        "User_3",
        "41"
      ],
      [
        "User_3",
        "18"
      ],
      [
        "User_3",
        "65"
      ],
      [
        "User_3",
        "67"
      ],
      [
        "User_3",
        "56"
      ],
      [
        "User_3",
        "29"
      ],
      [
        "User_3",
        "37"
      ],
      [
        "User_3",
        "85"
      ],
      [
        "User_3",
        "04"
      ],
      [
        "User_3",
        "01"
      ],
      [
        "User_6",
        "23"
      ],
      [
        "User_6",
        "76"
      ],
      [
        "User_6",
        "25"
      ],
      [
        "User_6",
        "27"
      ],
      [
        "User_2",
        "50"
      ],
      [
        "User_2",
        "72"
      ],
      [
        "User_2",
        "60"
      ],
      [
        "User_2",
        "21"
      ],
      [
        "User_2",
        "32"
      ],
      [
        "User_2",
        "39"
      ],
      [
        "User_8",
        "88"
      ],
      [
        "User_8",
        "94"
      ],
      [
        "User_8",
        "32"
      ],
      [
        "User_8",
        "76"
      ],
      [
        "User_8",
        "84"
      ],
      [
        "User_8",
        "14"
      ],
      [
        "User_8",
        "06"
      ],
      [
        "User_4",
        "51"
      ],
      [
        "User_4",
        "72"
      ],
      [
        "User_4",
        "22"
      ],
      [
        "User_4",
        "21"
      ],
      [
        "User_4",
        "57"
      ],
      [
        "User_4",
        "32"
      ],
      [
        "User_4",
        "17"
      ],
      [
        "User_4",
        "06"
      ],
      [
        "User_7",
        "70"
      ],
      [
        "User_7",
        "71"
      ],
      [
        "User_7",
        "42"
      ],
      [
        "User_7",
        "94"
      ],
      [
        "User_7",
        "59"
      ],
      [
        "User_7",
        "54"
      ],
      [
        "User_7",
        "83"
      ],
      [
        "User_7",
        "15"
      ],
      [
        "User_7",
        "96"
      ],
      [
        "User_7",
        "86"
      ],
      [
        "User_7",
        "01"
      ],
      [
        "User_7",
        "07"
      ],
      [
        "User_5",
        "69"
      ],
      [
        "User_5",
        "74"
      ],
      [
        "User_5",
        "17"
      ],
      [
        "User_5",
        "84"
      ],
      [
        "User_5",
        "02"
      ],
      [
        "User_5",
        "08"
      ],
      [
        "User_5",
        "06"
      ],
      [
        "44",
        "5"
      ],
      [
        "58",
        "8"
      ],
      [
        "50",
        "9"
      ],
      [
        "98",
        "9"
      ],
      [
        "70",
        "7"
      ],
      [
        "63",
        "3"
      ],
      [
        "28",
        "0"
      ],
      [
        "49",
        "4"
      ],
      [
        "55",
        "9"
      ],
      [
        "69",
        "4"
      ],
      [
        "1",
        "77"
      ],
      [
        "3",
        "72"
      ],
      [
        "3",
        "64"
      ],
      [
        "4",
        "67"
      ],
      [
        "5",
        "65"
      ],
      [
        "5",
        "67"
      ],
      [
        "7",
        "67"
      ],
      [
        "8",
        "50"
      ],
      [
        "8",
        "97"
      ],
      [
        "9",
        "47"
      ],
      [
        "User_1",
        "22"
      ],
      [
        "User_1",
        "54"
      ],
      [
        "User_9",
        "68"
      ],
      [
        "User_9",
        "18"
      ],
      [
        "User_9",
        "89"
      ],
      [
        "User_9",
        "01"
      ],
      [
        "User_3",
        "68"
      ],
      [
        "User_3",
        "19"
      ],
      [
        "User_3",
        "14"
      ],
      [
        "User_3",
        "07"
      ],
      [
        "User_6",
        "93"
      ],
      [
        "User_6",
        "53"
      ],
      [
        "User_6",
        "43"
      ],
      [
        "User_6",
        "68"
      ],
      [
        "User_6",
        "65"
      ],
      [
        "User_6",
        "47"
      ],
      [
        "User_6",
        "31"
      ],
      [
        "User_6",
        "59"
      ],
      [
        "User_2",
        "62"
      ],
      [
        "User_2",
        "99"
      ],
      [
        "User_2",
        "55"
      ],
      [
        "User_2",
        "79"
      ],
      [
        "User_2",
        "35"
      ],
      [
        "User_8",
        "78"
      ],
      [
        "User_8",
        "43"
      ],
      [
        "User_8",
        "60"
      ],
      [
        "User_8",
        "22"
      ],
      [
        "User_8",
        "46"
      ],
      [
        "User_8",
        "09"
      ],
      [
        "User_8",
        "07"
      ],
      [
        "User_4",
        "91"
      ],
      [
        "User_4",
        "78"
      ],
      [
        "User_4",
        "38"
      ],
      [
        "User_4",
        "27"
      ],
      [
        "User_7",
        "41"
      ],
      [
        "User_7",
        "61"
      ],
      [
        "User_7",
        "69"
      ],
      [
        "User_7",
        "25"
      ],
      [
        "User_7",
        "84"
      ],
      [
        "User_7",
        "05"
      ],
      [
        "User_5",
        "63"
      ],
      [
        "User_5",
        "22"
      ],
      [
        "52",
        "8"
      ],
      [
        "52",
        "9"
      ],
      [
        "73",
        "4"
      ],
      [
        "98",
        "8"
      ],
      [
        "93",
        "4"
      ],
      [
        "42",
        "5"
      ],
      [
        "63",
        "0"
      ],
      [
        "95",
        "6"
      ],
      [
        "20",
        "0"
      ],
      [
        "20",
        "2"
      ],
      [
        "21",
        "7"
      ],
      [
        "57",
        "9"
      ],
      [
        "1",
        "97"
      ],
      [
        "2",
        "75"
      ],
      [
        "2",
        "79"
      ],
      [
        "3",
        "67"
      ],
      [
        "3",
        "88"
      ],
      [
        "3",
        "55"
      ],
      [
        "3",
        "79"
      ],
      [
        "4",
        "97"
      ],
      [
        "5",
        "97"
      ],
      [
        "8",
        "49"
      ],
      [
        "8",
        "77"
      ],
      [
        "9",
        "97"
      ],
      [
        "User_1",
        "43"
      ],
      [
        "User_1",
        "46"
      ],
      [
        "User_1",
        "05"
      ],
      [
        "User_9",
        "74"
      ],
      [
        "User_9",
        "24"
      ],
      [
        "User_3",
        "42"
      ],
      [
        "User_6",
        "48"
      ],
      [
        "User_6",
        "37"
      ],
      [
        "User_2",
        "52"
      ],
      [
        "User_2",
        "47"
      ],
      [
        "User_2",
        "69"
      ],
      [
        "User_2",
        "82"
      ],
      [
        "User_2",
        "76"
      ],
      [
        "User_8",
        "50"
      ],
      [
        "User_8",
        "80"
      ],
      [
        "User_8",
        "64"
      ],
      [
        "User_4",
        "58"
      ],
      [
        "User_4",
        "82"
      ],
      [
        "User_4",
        "89"
      ],
      [
        "User_4",
        "19"
      ],
      [
        "User_4",
        "37"
      ],
      [
        "User_4",
        "14"
      ],
      [
        "User_4",
        "86"
      ],
      [
        "User_7",
        "72"
      ],
      [
        "User_7",
        "93"
      ],
      [
        "User_7",
        "80"
      ],
      [
        "User_7",
        "56"
      ],
      [
        "User_5",
        "66"
      ],
      [
        "User_5",
        "65"
      ],
      [
        "User_5",
        "56"
      ],
      [
        "92",
        "8"
      ],
      [
        "90",
        "1"
      ],
      [
        "90",
        "2"
      ],
      [
        "90",
        "5"
      ],
      [
        "58",
        "2"
      ],
      [
        "58",
        "9"
      ],
      [
        "78",
        "6"
      ],
      [
        "41",
        "7"
      ],
      [
        "48",
        "0"
      ],
      [
        "60",
        "7"
      ]
    ]
  }
}