{
  "version": "1.0",
  "truncation": null,
  "padding": null,
  "added_tokens": [
    {
      "id": 0,
      "content": "<UNK>",
      "single_word": false,
      "lstrip": false,
      "rstrip": false,
      "normalized": false,
      "special": true
    },
    {
      "id": 1,
      "content": "<PAD>",
      "single_word": false,
      "lstrip": false,
      "rstrip": false,
      "normalized": false,
      "special": true
    },
    {
      "id": 2,
      "content": "<BOS>",
      "single_word": false,
      "lstrip": false,
      "rstrip": false,
      "normalized": false,
      "special": true
    },
    {
      "id": 3,
      "content": "<EOS>",
      "single_word": false,
      "lstrip": false,
      "rstrip": false,
      "normalized": false,
      "special": true
    },
    {
      "id": 32000,
      "content": "<|im_start|>",
      "single_word": false,
      "lstrip": false,
      "rstrip": false,
      "normalized": false,
      "special": true
    },
    {
      "id": 32001,
      "content": "<|im_end|>",
      "single_word": false,
      "lstrip": false,
      "rstrip": false,
      "normalized": false,
      "special": true
    },
    {
      "id": 32002,
      "content": "\n",
      "single_word": false,
      "lstrip": false,
      "rstrip": false,
      "normalized": false,
      "special": true
    }
  ],
  "normalizer": null,
  "pre_tokenizer": {
    "type": "Metaspace",
    "replacement": "▁",
    "prepend_scheme": "always",
    "split": true
  },
  "post_processor": {
    "type": "TemplateProcessing",
    "single": [
      {
        "Sequence": {
          "id": "A",
          "type_id": 0
        }
      }
    ],
    "pair": [
      {
        "Sequence": {
          "id": "A",
          "type_id": 0
        }
      },
      {
        "Sequence": {
          "id": "B",
          "type_id": 1
        }
      }
    ],
    "special_tokens": {}
  },
  "decoder": null,
  "model": {
    "type": "BPE",
    "dropout": null,
    "unk_token": "<UNK>",
    "continuing_subword_prefix": null,
    "end_of_word_suffix": null,
    "fuse_unk": false,
    "byte_fallback": false,
    "ignore_merges": false,
    "vocab": {
      "<UNK>": 0,
      "<PAD>": 1,
      "<BOS>": 2,
      "<EOS>": 3,
      "▁": 4,
      "Z": 5,
      "a": 6,
      "t": 7,
      "u": 8,
      "r": 9,
      "n": 10,
      "h": 11,
      "B": 12,
      "g": 13,
      "i": 14,
      "l": 15,
      "s": 16,
      "'": 17,
      "o": 18,
      "m": 19,
      "p": 20,
      "d": 21,
      "k": 22,
      ",": 23,
      "-": 24,
      "E": 25,
      "j": 26,
      "6": 27,
      "1": 28,
      "/": 29,
      "2": 30,
      "D": 31,
      "P": 32,
      "R": 33,
      "3": 34,
      "–": 35,
      "4": 36,
      "e": 37,
      "c": 38,
      "y": 39,
      "Ü": 40,
      "b": 41,
      "f": 42,
      "O": 43,
      "M": 44,
      "7": 45,
      "T": 46,
      ".": 47,
      "v": 48,
      "K": 49,
      "G": 50,
      "ē": 51,
      "(": 52,
      ")": 53,
      ":": 54,
      "\"": 55,
      "š": 56,
      "8": 57,
      "J": 58,
      "衿": 59,
      "川": 60,
      "區": 61,
      "L": 62,
      "C": 63,
      "N": 64,
      "0": 65,
      "S": 66,
      "%": 67,
      "w": 68,
      "z": 69,
      "е": 70,
      "в": 71,
      "и": 72,
      "ч": 73,
      "F": 74,
      "U": 75,
      "A": 76,
      "x": 77,
      "á": 78,
      "5": 79,
      "Y": 80,
      "V": 81,
      "±": 82,
      "?": 83,
      "$": 84,
      "q": 85,
      "’": 86,
      "H": 87,
      "ā": 88,
      "=": 89,
      "|": 90,
      "Ú": 91,
      "ě": 92,
      "í": 93,
      ";": 94,
      "9": 95,
      "*": 96,
      "é": 97,
      "X": 98,
      "W": 99,
      "I": 100,
      "@": 101,
      "飯": 102,
      "島": 103,
      "ü": 104,
      "ğ": 105,
      "ó": 106,
      "!": 107,
      "‑": 108,
      "+": 109,
      "ø": 110,
      "ō": 111,
      "노": 112,
      "원": 113,
      "구": 114,
      "女": 115,
      "神": 116,
      "転": 117,
      "生": 118,
      "Ā": 119,
      "Æ": 120,
      "æ": 121,
      ">": 122,
      "𐌲": 123,
      "𐌿": 124,
      "𐍄": 125,
      "𐌰": 126,
      "𐍂": 127,
      "𐌶": 128,
      "𐌳": 129,
      "ö": 130,
      "—": 131,
      "”": 132,
      "𐤑": 133,
      "𐤐": 134,
      "𐤍": 135,
      "𐤁": 136,
      "𐤏": 137,
      "𐤋": 138,
      "ä": 139,
      "#": 140,
      "ʒ": 141,
      "咸": 142,
      "興": 143,
      "市": 144,
      "南": 145,
      "四": 146,
      "ف": 147,
      "ا": 148,
      "ط": 149,
      "م": 150,
      "ة": 151,
      "ل": 152,
      "ْ": 153,
      "خ": 154,
      "َ": 155,
      "ي": 156,
      "ر": 157,
      "ت": 158,
      "ِ": 159,
      "<": 160,
      "γ": 161,
      "υ": 162,
      "ν": 163,
      "α": 164,
      "ι": 165,
      "ξ": 166,
      "ί": 167,
      "ṇ": 168,
      "ū": 169,
      "~": 170,
      "“": 171,
      "太": 172,
      "原": 173,
      "卫": 174,
      "星": 175,
      "发": 176,
      "射": 177,
      "中": 178,
      "心": 179,
      "从": 180,
      "影": 181,
      "像": 182,
      "看": 183,
      "塔": 184,
      "ë": 185,
      "张": 186,
      "宁": 187,
      "正": 188,
      "月": 189,
      "Ś": 190,
      "è": 191,
      "ṣ": 192,
      "ṭ": 193,
      "ᨄ": 194,
      "ᨙ": 195,
      "ᨑ": 196,
      "ᨓ": 197,
      "ᨀ": 198,
      "ᨗ": 199,
      "ᨒ": 200,
      "]": 201,
      "ú": 202,
      "Q": 203,
      "π": 204,
      "ρ": 205,
      "ο": 206,
      "β": 207,
      "ά": 208,
      "τ": 209,
      "ω": 210,
      "و": 211,
      "ُ": 212,
      "ب": 213,
      "ش": 214,
      "ّ": 215,
      "ً": 216,
      "П": 217,
      "о": 218,
      "н": 219,
      "р": 220,
      "с": 221,
      "к": 222,
      "서": 223,
      "령": 224,
      "さ": 225,
      "と": 226,
      "り": 227,
      "世": 228,
      "代": 229,
      "障": 230,
      "−": 231,
      "‘": 232,
      "Λ": 233,
      "ï": 234,
      "&": 235,
      "ý": 236,
      "Ç": 237,
      "ć": 238,
      "ʼ": 239,
      "€": 240,
      "°": 241,
      "ử": 242,
      "Č": 243,
      "岛": 244,
      "廷": 245,
      "議": 246,
      "_": 247,
      "ç": 248,
      "õ": 249,
      "Ó": 250,
      "փ": 251,
      "ق": 252,
      "،": 253,
      "غ": 254,
      "金": 255,
      "龍": 256,
      "春": 257,
      "ê": 258,
      "주": 259,
      "인": 260,
      "[": 261,
      "â": 262,
      "ī": 263,
      "द": 264,
      "ि": 265,
      "न": 266,
      "ص": 267,
      "（": 268,
      "ك": 269,
      "Т": 270,
      "ы": 271,
      "я": 272,
      "à": 273,
      "순": 274,
      "정": 275,
      "м": 276,
      "刘": 277,
      "宇": 278,
      "º": 279,
      "أ": 280,
      "ꦱ": 281,
      "ꦸ": 282,
      "ꦮ": 283,
      "ꦁ": 284,
      "≡": 285,
      "自": 286,
      "由": 287,
      "で": 288,
      "あ": 289,
      "る": 290,
      "た": 291,
      "め": 292,
      "に": 293,
      "ḍ": 294,
      "津": 295,
      "久": 296,
      "光": 297,
      "公": 298,
      "実": 299,
      "紀": 300,
      "Ż": 301,
      "·": 302,
      "ح": 303,
      "د": 304,
      "衆": 305,
      "众": 306,
      "ج": 307,
      "ګ": 308,
      "ړ": 309,
      "ه": 310,
      "ἕ": 311,
      "ε": 312,
      "ς": 313,
      "映": 314,
      "ボ": 315,
      "ト": 316,
      "ム": 317,
      "ß": 318,
      "ñ": 319,
      "ى": 320,
      "ì": 321,
      "ã": 322,
      "ṅ": 323,
      "К": 324,
      "電": 325,
      "电": 326,
      "파": 327,
      "禮": 328,
      "礼": 329,
      "ن": 330,
      "ð": 331,
      "雜": 332,
      "杂": 333,
      "雑": 334,
      "Ö": 335,
      "ʾ": 336,
      "ꦲ": 337,
      "ꦶ": 338,
      "ꦔ": 339,
      "ꦂ": 340,
      "​": 341,
      "ꦠ": 342,
      "ꦭ": 343,
      "ꦝ": 344,
      "δ": 345,
      "σ": 346,
      "ל": 347,
      "א": 348,
      "מ": 349,
      "ר": 350,
      "上": 351,
      "一": 352,
      "翔": 353,
      "Ø": 354,
      "έ": 355,
      "μ": 356,
      "ł": 357,
      "ę": 358,
      "ż": 359,
      "ʻ": 360,
      "镇": 361,
      "蘇": 362,
      "互": 363,
      "不": 364,
      "侵": 365,
      "犯": 366,
      "條": 367,
      "約": 368,
      "л": 369,
      "а": 370,
      "η": 371,
      "ĕ": 372,
      "É": 373,
      "М": 374,
      "ò": 375,
      "у": 376,
      "Š": 377,
      "ą": 378,
      "À": 379,
      "č": 380,
      "Ц": 381,
      "п": 382,
      "д": 383,
      "ц": 384,
      "ь": 385,
      "ń": 386,
      "唐": 387,
      "辉": 388,
      "香": 389,
      "港": 390,
      "藝": 391,
      "術": 392,
      "節": 393,
      "⭐": 394,
      "ა": 395,
      "ә": 396,
      "́": 397,
      "т": 398,
      "紅": 399,
      "茶": 400,
      "毕": 401,
      "雯": 402,
      "珺": 403,
      "⋅": 404,
      "著": 405,
      "着": 406,
      "Ⴣ": 407,
      "Ⴍ": 408,
      "Ō": 409,
      "¾": 410,
      "패": 411,
      "러": 412,
      "블": 413,
      "½": 414,
      "ء": 415,
      "£": 416,
      "Ν": 417,
      "ζ": 418,
      "س": 419,
      "天": 420,
      "主": 421,
      "教": 422,
      "聖": 423,
      "家": 424,
      "堂": 425,
      "위": 426,
      "한": 427,
      "Խ": 428,
      "ո": 429,
      "ւ": 430,
      "մ": 431,
      "բ": 432,
      "»": 433,
      "®": 434,
      "ž": 435,
      "ă": 436,
      "î": 437,
      "г": 438,
      "ś": 439,
      "Ž": 440,
      "武": 441,
      "井": 442,
      "∩": 443,
      "铁": 444,
      "石": 445,
      "部": 446,
      "队": 447,
      "ḥ": 448,
      "소": 449,
      "ی": 450,
      "ŏ": 451,
      "В": 452,
      "۪": 453,
      "ٰ": 454,
      "Θ": 455,
      "κ": 456,
      "ό": 457,
      "λ": 458,
      "漢": 459,
      "裝": 460,
      "त": 461,
      "𐌠": 462,
      "𐌢": 463,
      "맘": 464,
      "대": 465,
      "로": 466,
      "萬": 467,
      "万": 468,
      "إ": 469,
      "ȷ": 470,
      "ʰ": 471,
      "ֶ": 472,
      "ı": 473,
      "肥": 474,
      "姐": 475,
      "駕": 476,
      "到": 477,
      "口": 478,
      "Β": 479,
      "ş": 480,
      "安": 481,
      "倍": 482,
      "朝": 483,
      "臣": 484,
      "晴": 485,
      "明": 486,
      "û": 487,
      "좋": 488,
      "은": 489,
      "­": 490,
      "─": 491,
      "Á": 492,
      "¬": 493,
      "ṁ": 494,
      "褐": 495,
      "ܗ": 496,
      "ܘ": 497,
      "ܵ": 498,
      "ù": 499,
      "̟": 500,
      "岸": 501,
      "弥": 502,
      "左": 503,
      "衛": 504,
      "門": 505,
      "殺": 506,
      "商": 507,
      "胡": 508,
      "波": 509,
      "斯": 510,
      "數": 511,
      "千": 512,
      "人": 513,
      "Ά": 514,
      "橋": 515,
      "頭": 516,
      "з": 517,
      "А": 518,
      "й": 519,
      "舉": 520,
      "兩": 521,
      "得": 522,
      "Đ": 523,
      "半": 524,
      "歩": 525,
      "ゆ": 526,
      "ず": 527,
      "っ": 528,
      "て": 529,
      "{": 530,
      "ώ": 531,
      "陳": 532,
      "美": 533,
      "齡": 534,
      "ř": 535,
      "å": 536,
      "ח": 537,
      "ו": 538,
      "ת": 539,
      "遞": 540,
      "递": 541,
      "逓": 542,
      "ἀ": 543,
      "ग": 544,
      "ो": 545,
      "व": 546,
      "ं": 547,
      "〜": 548,
      "ɦ": 549,
      "大": 550,
      "藏": 551,
      "經": 552,
      "연": 553,
      "세": 554,
      "凤": 555,
      "爪": 556,
      "드": 557,
      "라": 558,
      "마": 559,
      "시": 560,
      "티": 561,
      "Α": 562,
      "ع": 563,
      "尢": 564,
      "列": 565,
      "馬": 566,
      "克": 567,
      "С": 568,
      "б": 569,
      "友": 570,
      "達": 571,
      "売": 572,
      "買": 573,
      "φ": 574,
      "ἐ": 575,
      "Χ": 576,
      "买": 577,
      "토": 578,
      "니": 579,
      "안": 580,
      "}": 581,
      "µ": 582,
      "³": 583,
      "™": 584,
      "…": 585,
      "「": 586,
      "ヤ": 587,
      "れ": 588,
      "噂": 589,
      "の": 590,
      "誰": 591,
      "も": 592,
      "い": 593,
      "な": 594,
      "始": 595,
      "発": 596,
      "車": 597,
      "ヌ": 598,
      "イ": 599,
      "く": 600,
      "オ": 601,
      "ン": 602,
      "ナ": 603,
      "が": 604,
      "在": 605,
      "し": 606,
      "」": 607,
      "স": 608,
      "ে": 609,
      "ভ": 610,
      "ক": 611,
      "ύ": 612,
      "祝": 613,
      "•": 614,
      "י": 615,
      "ם": 616,
      "。": 617,
      "句": 618,
      "点": 619,
      "・": 620,
      "十": 621,
      "五": 622,
      "暝": 623,
      "`": 624,
      "ㅇ": 625,
      "이": 626,
      "야": 627,
      "기": 628,
      "☆": 629,
      "ﺳ": 630,
      "ﮑ": 631,
      "ﺘ": 632,
      "ﻪ": 633,
      "Ľ": 634,
      "靖": 635,
      "儀": 636,
      "ز": 637,
      "Ł": 638,
      "海": 639,
      "陽": 640,
      "縣": 641,
      "Í": 642,
      "县": 643,
      "지": 644,
      "다": 645,
      "혜": 646,
      "련": 647,
      "đ": 648,
      "陈": 649,
      "毅": 650,
      "纪": 651,
      "念": 652,
      "馆": 653,
      "כ": 654,
      "־": 655,
      "Φ": 656,
      "柯": 657,
      "羅": 658,
      "ъ": 659,
      "œ": 660,
      "Р": 661,
      "ᨔ": 662,
      "ᨅ": 663,
      "ᨘ": 664,
      "ᨕ": 665,
      "х": 666,
      "ض": 667,
      "알": 668,
      "아": 669,
      "ế": 670,
      "ắ": 671,
      "«": 672,
      "弱": 673,
      "ロ": 674,
      "З": 675,
      "²": 676,
      "ギ": 677,
      "ズ": 678,
      "ņ": 679,
      "ǎ": 680,
      "警": 681,
      "察": 682,
      "故": 683,
      "事": 684,
      "２": 685,
      "ד": 686,
      "ב": 687,
      "ю": 688,
      "底": 689,
      "隆": 690,
      "广": 691,
      "結": 692,
      "集": 693,
      "！": 694,
      "１": 695,
      "５": 696,
      "眼": 697,
      "魂": 698,
      "パ": 699,
      "を": 700,
      "食": 701,
      "べ": 702,
      "ま": 703,
      "せ": 704,
      "ん": 705,
      "Д": 706,
      "ж": 707,
      "ٱ": 708,
      "נ": 709,
      "ע": 710,
      "お": 711,
      "墓": 712,
      "ǒ": 713,
      "Η": 714,
      "田": 715,
      "谷": 716,
      "野": 717,
      "극": 718,
      "락": 719,
      "전": 720,
      "ș": 721,
      "𐋂": 722,
      "𐋃": 723,
      "і": 724,
      "사": 725,
      "트": 726,
      "ː": 727,
      "～": 728,
      "札": 729,
      "画": 730,
      "투": 731,
      "에": 732,
      "엠": 733,
      "ソ": 734,
      "フ": 735,
      "ィ": 736,
      "ア": 737,
      "リ": 738,
      "グ": 739,
      "サ": 740,
      "タ": 741,
      "ー": 742,
      "¿": 743,
      "Г": 744,
      "ワ": 745,
      "ネ": 746,
      "ッ": 747,
      "ブ": 748,
      "ル": 749,
      "ド": 750,
      "ツ": 751,
      "屋": 752,
      "店": 753,
      "長": 754,
      "ƒ": 755,
      "재": 756,
      "검": 757,
      "가": 758,
      "Î": 759,
      "ּ": 760,
      "ְ": 761,
      "ַ": 762,
      "ʃ": 763,
      "И": 764,
      "ф": 765,
      "ə": 766,
      "ἰ": 767,
      "ῆ": 768,
      "θ": 769,
      "택": 770,
      "현": 771,
      "Ű": 772,
      "У": 773,
      "פ": 774,
      "ק": 775,
      "׃": 776,
      "ה": 777,
      "ָ": 778,
      "성": 779,
      "꧋": 780,
      "꧀": 781,
      "ꦩ": 782,
      "ꦏ": 783,
      "ꦤ": 784,
      "ꦼ": 785,
      "ꦒ": 786,
      "ꦫ": 787,
      "꧇": 788,
      "꧑": 789,
      "ꦧ": 790,
      "ἡ": 791,
      "ᾶ": 792,
      "Հ": 793,
      "ա": 794,
      "յ": 795,
      "կ": 796,
      "ն": 797,
      "穗": 798,
      "鶥": 799,
      "": 800,
      "そ": 801,
      "Τ": 802,
      "ố": 803,
      "ɪ": 804,
      "ˈ": 805,
      "ɛ": 806,
      "矢": 807,
      "Ä": 808,
      "ő": 809,
      "ケ": 810,
      "猪": 811,
      "笼": 812,
      "草": 813,
      "的": 814,
      "组": 815,
      "织": 816,
      "培": 817,
      "养": 818,
      "״": 819,
      "훈": 820,
      "민": 821,
      "음": 822,
      "訓": 823,
      "民": 824,
      "音": 825,
      "ﬁ": 826,
      "क": 827,
      "े": 828,
      "भ": 829,
      "ा": 830,
      "र": 831,
      "्": 832,
      "ғ": 833,
      "ầ": 834,
      "則": 835,
      "平": 836,
      "遠": 837,
      "之": 838,
      "盜": 839,
      "弭": 840,
      "斎": 841,
      "藤": 842,
      "冬": 843,
      "優": 844,
      "花": 845,
      "중": 846,
      "공": 847,
      "업": 848,
      "ệ": 849,
      "孫": 850,
      "奮": 851,
      "將": 852,
      "将": 853,
      "Ὄ": 854,
      "ラ": 855,
      "伝": 856,
      "説": 857,
      "文": 858,
      "述": 859,
      "宫": 860,
      "博": 861,
      "物": 862,
      "院": 863,
      "無": 864,
      "无": 865,
      "와": 866,
      "줘": 867,
      "长": 868,
      "ユ": 869,
      "ニ": 870,
      "ス": 871,
      "．": 872,
      "チ": 873,
      "ャ": 874,
      "ǔ": 875,
      "兄": 876,
      "Ⴕ": 877,
      "Ⴀ": 878,
      "Ⴐ": 879,
      "Ⴇ": 880,
      "Ⴊ": 881,
      "Ⴈ": 882,
      "김": 883,
      "흠": 884,
      "돌": 885,
      "ɕ": 886,
      "☉": 887,
      "브": 888,
      "레": 889,
      "터": 890,
      "ǐ": 891,
      "አ": 892,
      "ባ": 893,
      "ጤ": 894,
      "ና": 895,
      "ደ": 896,
      "ጃ": 897,
      "邵": 898,
      "奕": 899,
      "玫": 900,
      "ɳ": 901,
      "ġ": 902,
      "孔": 903,
      "紇": 904,
      "賀": 905,
      "贺": 906,
      "マ": 907,
      "ヴ": 908,
      "鵲": 909,
      "ש": 910,
      "側": 911,
      "侧": 912,
      "李": 913,
      "泰": 914,
      "龙": 915,
      "‖": 916,
      "ٍ": 917,
      "ὴ": 918,
      "皇": 919,
      "帝": 920,
      "梅": 921,
      "‒": 922,
      "思": 923,
      "六": 924,
      "弓": 925,
      "乡": 926,
      "形": 927,
      "容": 928,
      "動": 929,
      "詞": 930,
      "黄": 931,
      "现": 932,
      "璠": 933,
      "黃": 934,
      "現": 935,
      "^": 936,
      "景": 937,
      "烁": 938,
      "ї": 939,
      "ث": 940,
      "今": 941,
      "す": 942,
      "ぐ": 943,
      "カ": 944,
      "ポ": 945,
      "ウ": 946,
      "Ս": 947,
      "պ": 948,
      "ե": 949,
      "ր": 950,
      "ս": 951,
      "թ": 952,
      "窮": 953,
      "日": 954,
      "溜": 955,
      "街": 956,
      "Ḳ": 957,
      "だ": 958,
      "ῷ": 959,
      "ô": 960,
      "ŋ": 961,
      "新": 962,
      "盈": 963,
      "北": 964,
      "匈": 965,
      "奴": 966,
      "×": 967,
      "Π": 968,
      "候": 969,
      "參": 970,
      "参": 971,
      "비": 972,
      "⁄": 973,
      "兴": 974,
      "ס": 975,
      "늑": 976,
      "巫": 977,
      "§": 978,
      "謹": 979,
      "ὕ": 980,
      "郭": 981,
      "采": 982,
      "潔": 983,
      "成": 984,
      "軍": 985,
      "情": 986,
      "醒": 987,
      "ʷ": 988,
      "鋼": 989,
      "钢": 990,
      "鑄": 991,
      "铸": 992,
      "鋳": 993,
      "鹿": 994,
      "西": 995,
      "町": 996,
      "異": 997,
      "异": 998,
      "期": 999,
      "琼": 1000,
      "山": 1001,
      "밀": 1002,
      "월": 1003,
      "ू": 1004,
      "ख": 1005,
      "ड": 1006,
      "承": 1007,
      "乾": 1008,
      "′": 1009,
      "母": 1010,
      "Ф": 1011,
      "福": 1012,
      "廳": 1013,
      "庁": 1014,
      "創": 1015,
      "创": 1016,
      "暂": 1017,
      "休": 1018,
      "ṯ": 1019,
      "肖": 1020,
      "力": 1021,
      "桓": 1022,
      "ḷ": 1023,
      "צ": 1024,
      "柚": 1025,
      "役": 1026,
      "便": 1027,
      "ט": 1028,
      "람": 1029,
      "布": 1030,
      "慢": 1031,
      "Н": 1032,
      "ـ": 1033,
      "ᨊ": 1034,
      "Γ": 1035,
      "魏": 1036,
      "如": 1037,
      "萱": 1038,
      "奥": 1039,
      "シ": 1040,
      "ォ": 1041,
      "秋": 1042,
      "Ĺ": 1043,
      "ﺱ": 1044,
      "虹": 1045,
      "桥": 1046,
      "Ñ": 1047,
      "„": 1048,
      "率": 1049,
      "三": 1050,
      "亚": 1051,
      "꽃": 1052,
      "미": 1053,
      "남": 1054,
      "妹": 1055,
      "ち": 1056,
      "よ": 1057,
      "황": 1058,
      "진": 1059,
      "服": 1060,
      "Ṣ": 1061,
      "离": 1062,
      "体": 1063,
      "及": 1064,
      "植": 1065,
      "株": 1066,
      "再": 1067,
      "研": 1068,
      "究": 1069,
      "Δ": 1070,
      "ṃ": 1071,
      "葬": 1072,
      "陵": 1073,
      "第": 1074,
      "九": 1075,
      "片": 1076,
      "¼": 1077,
      "高": 1078,
      "男": 1079,
      "方": 1080,
      "言": 1081,
      "ṉ": 1082,
      "´": 1083,
      "آ": 1084,
      "许": 1085,
      "）": 1086,
      "چ": 1087,
      "４": 1088,
      "居": 1089,
      "房": 1090,
      "Ẹ": 1091,
      "汽": 1092,
      "ג": 1093,
      "失": 1094,
      "わ": 1095,
      "秘": 1096,
      "宝": 1097,
      "謎": 1098,
      "유": 1099,
      "산": 1100,
      "그": 1101,
      "립": 1102,
      "协": 1103,
      "配": 1104,
      "村": 1105,
      "ベ": 1106,
      "박": 1107,
      "영": 1108,
      "규": 1109,
      "ῶ": 1110,
      "Ş": 1111,
      "瑪": 1112,
      "利": 1113,
      "亞": 1114,
      "，": 1115,
      "為": 1116,
      "我": 1117,
      "等": 1118,
      "罪": 1119,
      "バ": 1120,
      "Ḥ": 1121,
      "政": 1122,
      "О": 1123,
      "渡": 1124,
      "岗": 1125,
      "개": 1126,
      "화": 1127,
      "ằ": 1128,
      "子": 1129,
      "沢": 1130,
      "백": 1131,
      "하": 1132,
      "나": 1133,
      "御": 1134,
      "二": 1135,
      "内": 1136,
      "沙": 1137,
      "樹": 1138,
      "ậ": 1139,
      "惡": 1140,
      "恶": 1141,
      "悪": 1142,
      "왕": 1143,
      "자": 1144,
      "만": 1145,
      "호": 1146,
      "부": 1147,
      "德": 1148,
      "宗": 1149,
      "숙": 1150,
      "ɟ": 1151,
      "停": 1152,
      "侍": 1153,
      "เ": 1154,
      "จ": 1155,
      "อ": 1156,
      "\\": 1157,
      "决": 1158,
      "친": 1159,
      "여": 1160,
      "ハ": 1161,
      "組": 1162,
      "ן": 1163,
      "ė": 1164,
      "⟨": 1165,
      "⟩": 1166,
      "署": 1167,
      "亜": 1168,
      "貴": 1169,
      "土": 1170,
      "豁": 1171,
      "ấ": 1172,
      "চ": 1173,
      "া": 1174,
      "ک": 1175,
      "수": 1176,
      "촌": 1177,
      "董": 1178,
      "普": 1179,
      "覺": 1180,
      "國": 1181,
      "師": 1182,
      "ź": 1183,
      "厦": 1184,
      "门": 1185,
      "범": 1186,
      "密": 1187,
      "辭": 1188,
      "辞": 1189,
      "国": 1190,
      "우": 1191,
      "리": 1192,
      "尉": 1193,
      "寄": 1194,
      "諸": 1195,
      "议": 1196,
      "曹": 1197,
      "χ": 1198,
      "ῖ": 1199,
      "ˀ": 1200,
      "ך": 1201,
      "ả": 1202,
      "ǫ": 1203,
      "ئ": 1204,
      "پ": 1205,
      "ゴ": 1206,
      "ジ": 1207,
      "問": 1208,
      "问": 1209,
      "里": 1210,
      "社": 1211,
      "八": 1212,
      "ﻁ": 1213,
      "Â": 1214,
      "ʀ": 1215,
      "班": 1216,
      "淑": 1217,
      "传": 1218,
      "奇": 1219,
      "ῦ": 1220,
      "立": 1221,
      "̰": 1222,
      "ʑ": 1223,
      "ɔ": 1224,
      "̀": 1225,
      "Ε": 1226,
      "″": 1227,
      "戯": 1228,
      "∅": 1229,
      "赵": 1230,
      "佗": 1231,
      "љ": 1232,
      "ή": 1233,
      "苏": 1234,
      "堤": 1235,
      "阳": 1236,
      "地": 1237,
      "獄": 1238,
      "ი": 1239,
      "კ": 1240,
      "ო": 1241,
      "ბ": 1242,
      "ส": 1243,
      "ิ": 1244,
      "ง": 1245,
      "ห": 1246,
      "์": 1247,
      "ป": 1248,
      "ร": 1249,
      "ะ": 1250,
      "ฐ": 1251,
      "暗": 1252,
      "계": 1253,
      "雪": 1254,
      "আ": 1255,
      "ছ": 1256,
      "老": 1257,
      "舍": 1258,
      "賞": 1259,
      "賜": 1260,
      "守": 1261,
      "み": 1262,
      "メ": 1263,
      "デ": 1264,
      "芸": 1265,
      "交": 1266,
      "趾": 1267,
      "ﺹ": 1268,
      "ɑ": 1269,
      "집": 1270,
      "ᨚ": 1271,
      "ᨇ": 1272,
      "ᨛ": 1273,
      "ἴ": 1274,
      "̥": 1275,
      "簡": 1276,
      "简": 1277,
      "罗": 1278,
      "ʜ": 1279,
      "Σ": 1280,
      "颇": 1281,
      "语": 1282,
      "汉": 1283,
      "词": 1284,
      "典": 1285,
      "前": 1286,
      "業": 1287,
      "校": 1288,
      "演": 1289,
      "丹": 1290,
      "霞": 1291,
      "浦": 1292,
      "邊": 1293,
      "ਭ": 1294,
      "ਗ": 1295,
      "ਤ": 1296,
      "鐵": 1297,
      "釜": 1298,
      "ェ": 1299,
      "ァ": 1300,
      "式": 1301,
      "会": 1302,
      "講": 1303,
      "讲": 1304,
      "眞": 1305,
      "එ": 1306,
      "ළ": 1307,
      "ු": 1308,
      "盆": 1309,
      "ῥ": 1310,
      "ψ": 1311,
      "ῳ": 1312,
      "천": 1313,
      "ḇ": 1314,
      "고": 1315,
      "閉": 1316,
      "闭": 1317,
      "林": 1318,
      "邑": 1319,
      "伊": 1320,
      "價": 1321,
      "价": 1322,
      "価": 1323,
      "皮": 1324,
      "氏": 1325,
      "¥": 1326,
      "回": 1327,
      "愛": 1328,
      "以": 1329,
      "革": 1330,
      "使": 1331,
      "湖": 1332,
      "考": 1333,
      "古": 1334,
      "季": 1335,
      "刊": 1336,
      "活": 1337,
      "关": 1338,
      "⸢": 1339,
      "百": 1340,
      "器": 1341,
      "徒": 1342,
      "然": 1343,
      "袋": 1344,
      "周": 1345,
      "作": 1346,
      "城": 1347,
      "ԙ": 1348,
      "채": 1349,
      "ồ": 1350,
      "너": 1351,
      "를": 1352,
      "Ò": 1353,
      "Ć": 1354,
      "亮": 1355,
      "王": 1356,
      "嘉": 1357,
      "薈": 1358,
      "軒": 1359,
      "雙": 1360,
      "屍": 1361,
      "兇": 1362,
      "案": 1363,
      "ই": 1364,
      "উ": 1365,
      "ন": 1366,
      "ু": 1367,
      "撃": 1368,
      "보": 1369,
      "ត": 1370,
      "ើ": 1371,
      "ប": 1372,
      "ន": 1373,
      "្": 1374,
      "ទ": 1375,
      "់": 1376,
      "ឹ": 1377,
      "ក": 1378,
      "ៅ": 1379,
      "ី": 1380,
      "ណ": 1381,
      "ា": 1382,
      "下": 1383,
      "水": 1384,
      "ლ": 1385,
      "ვ": 1386,
      "რ": 1387,
      "ე": 1388,
      "ნ": 1389,
      "ტ": 1390,
      "運": 1391,
      "命": 1392,
      "起": 1393,
      "出": 1394,
      "己": 1395,
      "匡": 1396,
      "ֵ": 1397,
      "恭": 1398,
      "𐊜": 1399,
      "Б": 1400,
      "Х": 1401,
      "初": 1402,
      "次": 1403,
      "會": 1404,
      "良": 1405,
      "þ": 1406,
      "キ": 1407,
      "ミ": 1408,
      "ガ": 1409,
      "義": 1410,
      "塚": 1411,
      "碑": 1412,
      "掩": 1413,
      "埋": 1414,
      "段": 1415,
      "血": 1416,
      "寫": 1417,
      "歷": 1418,
      "史": 1419,
      "宿": 1420,
      "玲": 1421,
      "旺": 1422,
      "乐": 1423,
      "ʿ": 1424,
      "繁": 1425,
      "尊": 1426,
      "卡": 1427,
      "Å": 1428,
      "何": 1429,
      "懿": 1430,
      "峻": 1431,
      "裁": 1432,
      "鳳": 1433,
      "阿": 1434,
      "哪": 1435,
      "ʔ": 1436,
      "昶": 1437,
      "旻": 1438,
      "話": 1439,
      "话": 1440,
      "番": 1441,
      "仔": 1442,
      "園": 1443,
      "遺": 1444,
      "址": 1445,
      "출": 1446,
      "揮": 1447,
      "挥": 1448,
      "ạ": 1449,
      "仓": 1450,
      "颉": 1451,
      "ὶ": 1452,
      "嚴": 1453,
      "严": 1454,
      "厳": 1455,
      "芒": 1456,
      "關": 1457,
      "廟": 1458,
      "Ἰ": 1459,
      "ΐ": 1460,
      "張": 1461,
      "昌": 1462,
      "章": 1463,
      "∞": 1464,
      "頊": 1465,
      "데": 1466,
      "뷰": 1467,
      "ộ": 1468,
      "̯": 1469,
      "死": 1470,
      "界": 1471,
      "戦": 1472,
      "線": 1473,
      "ʇ": 1474,
      "њ": 1475,
      "翰": 1476,
      "咲": 1477,
      "駅": 1478,
      "吉": 1479,
      "경": 1480,
      "ģ": 1481,
      "선": 1482,
      "생": 1483,
      "과": 1484,
      "ֹ": 1485,
      "ף": 1486,
      "ׁ": 1487,
      "ꦗ": 1488,
      "ꦃ": 1489,
      "ꦺ": 1490,
      "ꦴ": 1491,
      "꧈": 1492,
      "ꦚ": 1493,
      "ꦕ": 1494,
      "Ⴋ": 1495,
      "Ⴄ": 1496,
      "Ⴔ": 1497,
      "Ⴡ": 1498,
      "效": 1499,
      "効": 1500,
      "崎": 1501,
      "Ι": 1502,
      "魔": 1503,
      "法": 1504,
      "隊": 1505,
      "レ": 1506,
      "〈": 1507,
      "〉": 1508,
      "ἠ": 1509,
      "穀": 1510,
      "延": 1511,
      "展": 1512,
      "才": 1513,
      "是": 1514,
      "硬": 1515,
      "道": 1516,
      "理": 1517,
      "゜": 1518,
      "Ш": 1519,
      "響": 1520,
      "ە": 1521,
      "ὐ": 1522,
      "ῇ": 1523,
      "《": 1524,
      "戀": 1525,
      "豆": 1526,
      "冰": 1527,
      "》": 1528,
      "官": 1529,
      "ব": 1530,
      "ৈ": 1531,
      "শ": 1532,
      "খ": 1533,
      "Շ": 1534,
      "հ": 1535,
      "최": 1536,
      "동": 1537,
      "준": 1538,
      "特": 1539,
      "务": 1540,
      "ल": 1541,
      "स": 1542,
      "伯": 1543,
      "爵": 1544,
      "恋": 1545,
      "फ": 1546,
      "ळ": 1547,
      "강": 1548,
      "恩": 1549,
      "昊": 1550,
      "闕": 1551,
      "慈": 1552,
      "濟": 1553,
      "醫": 1554,
      "靈": 1555,
      "妙": 1556,
      "真": 1557,
      "君": 1558,
      "壽": 1559,
      "極": 1560,
      "保": 1561,
      "消": 1562,
      "化": 1563,
      "液": 1564,
      "蛋": 1565,
      "白": 1566,
      "酶": 1567,
      "性": 1568,
      "探": 1569,
      "Е": 1570,
      "실": 1571,
      "손": 1572,
      "흥": 1573,
      "ץ": 1574,
      "佐": 1575,
      "健": 1576,
      "郎": 1577,
      "型": 1578,
      "装": 1579,
      "備": 1580,
      "磁": 1581,
      "श": 1582,
      "ौ": 1583,
      "य": 1584,
      "थ": 1585,
      "殭": 1586,
      "先": 1587,
      "못": 1588,
      "찾": 1589,
      "겠": 1590,
      "开": 1591,
      "场": 1592,
      "巻": 1593,
      "き": 1594,
      "寿": 1595,
      "司": 1596,
      "울": 1597,
      "昭": 1598,
      "ۗ": 1599,
      "효": 1600,
      "𐌡": 1601,
      "˦": 1602,
      "ţ": 1603,
      "ш": 1604,
      "ذ": 1605,
      "۟": 1606,
      "장": 1607,
      "難": 1608,
      "მ": 1609,
      "წ": 1610,
      "志": 1611,
      "穂": 1612,
      "گ": 1613,
      "知": 1614,
      "未": 1615,
      "年": 1616,
      "仁": 1617,
      "浅": 1618,
      "寺": 1619,
      "境": 1620,
      "青": 1621,
      "空": 1622,
      "ぃ": 1623,
      "Ấ": 1624,
      "Ζ": 1625,
      "鹽": 1626,
      "盐": 1627,
      "塩": 1628,
      "ề": 1629,
      "அ": 1630,
      "ன": 1631,
      "ு": 1632,
      "ர": 1633,
      "ா": 1634,
      "த": 1635,
      "ப": 1636,
      "巴": 1637,
      "车": 1638,
      "厂": 1639,
      "쩐": 1640,
      "의": 1641,
      "ũ": 1642,
      "規": 1643,
      "规": 1644,
      "郑": 1645,
      "襄": 1646,
      "客": 1647,
      "ơ": 1648,
      "ｚ": 1649,
      "북": 1650,
      "迦": 1651,
      "落": 1652,
      "†": 1653,
      "ẓ": 1654,
      "̄": 1655,
      "ꚃ": 1656,
      "찬": 1657,
      "峰": 1658,
      "寂": 1659,
      "寞": 1660,
      "म": 1661,
      "़": 1662,
      "斗": 1663,
      "導": 1664,
      "航": 1665,
      "試": 1666,
      "驗": 1667,
      "系": 1668,
      "統": 1669,
      "コ": 1670,
      "プ": 1671,
      "양": 1672,
      "希": 1673,
      "望": 1674,
      "松": 1675,
      "倉": 1676,
      "韓": 1677,
      "査": 1678,
      "除": 1679,
      "別": 1680,
      "ண": 1681,
      "ி": 1682,
      "ư": 1683,
      "乳": 1684,
      "康": 1685,
      "畫": 1686,
      "華": 1687,
      "脳": 1688,
      "覧": 1689,
      "질": 1690,
      "적": 1691,
      "対": 1692,
      "父": 1693,
      "娘": 1694,
      "貯": 1695,
      "贮": 1696,
      "裊": 1697,
      "郡": 1698,
      "받": 1699,
      "줄": 1700,
      "래": 1701,
      "ť": 1702,
      "Ρ": 1703,
      "따": 1704,
      "級": 1705,
      "级": 1706,
      "গ": 1707,
      "ড": 1708,
      "়": 1709,
      "ি": 1710,
      "̆": 1711,
      "弁": 1712,
      "զ": 1713,
      "ヒ": 1714,
      "エ": 1715,
      "ゲ": 1716,
      "県": 1717,
      "幻": 1718,
      "想": 1719,
      "曲": 1720,
      "ڤ": 1721,
      "晋": 1722,
      "江": 1723,
      "柏": 1724,
      "Һ": 1725,
      "侑": 1726,
      "台": 1727,
      "朗": 1728,
      "丘": 1729,
      "笛": 1730,
      "木": 1731,
      "奏": 1732,
      "읍": 1733,
      "吳": 1734,
      "澄": 1735,
      "©": 1736,
      "룡": 1737,
      "、": 1738,
      "喜": 1739,
      "び": 1740,
      "클": 1741,
      "럽": 1742,
      "▲": 1743,
      "題": 1744,
      "题": 1745,
      "清": 1746,
      "銅": 1747,
      "彰": 1748,
      "Ա": 1749,
      "տ": 1750,
      "ի": 1751,
      "Μ": 1752,
      "履": 1753,
      "京": 1754,
      "¢": 1755,
      "洛": 1756,
      "尔": 1757,
      "ḗ": 1758,
      "ู": 1759,
      "้": 1760,
      "า": 1761,
      "ท": 1762,
      "ี": 1763,
      "่": 1764,
      "銀": 1765,
      "座": 1766,
      "ひ": 1767,
      "比": 1768,
      "外": 1769,
      "楽": 1770,
      "曽": 1771,
      "ɯ": 1772,
      "態": 1773,
      "态": 1774,
      "ħ": 1775,
      "こ": 1776,
      "ძ": 1777,
      "嗣": 1778,
      "綱": 1779,
      "ザ": 1780,
      "‌": 1781,
      "ु": 1782,
      "ÿ": 1783,
      "功": 1784,
      "夫": 1785,
      "足": 1786,
      "球": 1787,
      "扶": 1788,
      "筐": 1789,
      "七": 1790,
      "ị": 1791,
      "ビ": 1792,
      "İ": 1793,
      "І": 1794,
      "連": 1795,
      "학": 1796,
      "苔": 1797,
      "』": 1798,
      "並": 1799,
      "書": 1800,
      "岩": 1801,
      "脚": 1802,
      "ț": 1803,
      "時": 1804,
      "菜": 1805,
      "Κ": 1806,
      "ਸ": 1807,
      "ਾ": 1808,
      "ਹ": 1809,
      "ਿ": 1810,
      "ਬ": 1811,
      "ヨ": 1812,
      "ǵ": 1813,
      "純": 1814,
      "纯": 1815,
      "姬": 1816,
      "來": 1817,
      "智": 1818,
      "處": 1819,
      "处": 1820,
      "処": 1821,
      "擔": 1822,
      "担": 1823,
      "임": 1824,
      "슬": 1825,
      "옹": 1826,
      "ј": 1827,
      "手": 1828,
      "脈": 1829,
      "脉": 1830,
      "랑": 1831,
      "运": 1832,
      "ॢ": 1833,
      "प": 1834,
      "責": 1835,
      "责": 1836,
      "基": 1837,
      "霍": 1838,
      "鱧": 1839,
      "ֳ": 1840,
      "沅": 1841,
      "同": 1842,
      "დ": 1843,
      "深": 1844,
      "ᨈ": 1845,
      "舞": 1846,
      "ད": 1847,
      "བ": 1848,
      "ང": 1849,
      "་": 1850,
      "ཕ": 1851,
      "ྱ": 1852,
      "ུ": 1853,
      "ག": 1854,
      "ར": 1855,
      "ྒ": 1856,
      "ལ": 1857,
      "ŭ": 1858,
      "⅓": 1859,
      "柱": 1860,
      "『": 1861,
      "艦": 1862,
      "船": 1863,
      "️": 1864,
      "͡": 1865,
      "윤": 1866,
      "色": 1867,
      "ノ": 1868,
      "や": 1869,
      "ュ": 1870,
      "ἑ": 1871,
      "朱": 1872,
      "学": 1873,
      "易": 1874,
      "牙": 1875,
      "ந": 1876,
      "்": 1877,
      "ற": 1878,
      "ச": 1879,
      "ெ": 1880,
      "ங": 1881,
      "ổ": 1882,
      "조": 1883,
      "당": 1884,
      "ז": 1885,
      "火": 1886,
      "‐": 1887,
      "駄": 1888,
      "箱": 1889,
      "ڬ": 1890,
      "ĵ": 1891,
      "̲": 1892,
      "٩": 1893,
      "Ҕ": 1894,
      "ც": 1895,
      "უ": 1896,
      "漏": 1897,
      "ᨆ": 1898,
      "္": 1899,
      "錢": 1900,
      "Ђ": 1901,
      "は": 1902,
      "眠": 1903,
      "ら": 1904,
      "丁": 1905,
      "￥": 1906,
      "칠": 1907,
      "溝": 1908,
      "狭": 1909,
      "杜": 1910,
      "莎": 1911,
      "蜡": 1912,
      "명": 1913,
      "〇": 1914,
      "Ẓ": 1915,
      "管": 1916,
      "ظ": 1917,
      "ば": 1918,
      "旅": 1919,
      "Υ": 1920,
      "≠": 1921,
      "후": 1922,
      "때": 1923,
      "税": 1924,
      "٦": 1925,
      "심": 1926,
      "≈": 1927,
      "ἄ": 1928,
      "갑": 1929,
      "予": 1930,
      "本": 1931,
      "号": 1932,
      "養": 1933,
      "贈": 1934,
      "є": 1935,
      "風": 1936,
      "柳": 1937,
      "鎮": 1938,
      "逢": 1939,
      "甲": 1940,
      "遊": 1941,
      "詩": 1942,
      "所": 1943,
      "表": 1944,
      "恵": 1945,
      "신": 1946,
      "암": 1947,
      "역": 1948,
      "夜": 1949,
      "示": 1950,
      "ὰ": 1951,
      "加": 1952,
      "ṛ": 1953,
      "忠": 1954,
      "俊": 1955,
      "茂": 1956,
      "ク": 1957,
      "荊": 1958,
      "楚": 1959,
      "歲": 1960,
      "記": 1961,
      "ს": 1962,
      "ქ": 1963,
      "თ": 1964,
      "ἅ": 1965,
      "Ҷ": 1966,
      "信": 1967,
      "逃": 1968,
      "學": 1969,
      "威": 1970,
      "饑": 1971,
      "荒": 1972,
      "實": 1973,
      "乌": 1974,
      "鲁": 1975,
      "齐": 1976,
      "₹": 1977,
      "ڠ": 1978,
      "岡": 1979,
      "完": 1980,
      "全": 1981,
      "素": 1982,
      "編": 1983,
      "ﻑ": 1984,
      "ٌ": 1985,
      "문": 1986,
      "허": 1987,
      "ϱ": 1988,
      "寝": 1989,
      "待": 1990,
      "類": 1991,
      "类": 1992,
      "痛": 1993,
      "瓣": 1994,
      "乔": 1995,
      "설": 1996,
      "씨": 1997,
      "疑": 1998,
      "嵐": 1999,
      "蔵": 2000,
      "È": 2001,
      "≥": 2002,
      "ɗ": 2003,
      "ჰ": 2004,
      "Я": 2005,
      "权": 2006,
      "畚": 2007,
      "箕": 2008,
      "柒": 2009,
      "锺": 2010,
      "涛": 2011,
      "겨": 2012,
      "又": 2013,
      "見": 2014,
      "蔡": 2015,
      "坡": 2016,
      "ද": 2017,
      "ෙ": 2018,
      "ක": 2019,
      "ľ": 2020,
      "邓": 2021,
      "小": 2022,
      "巡": 2023,
      "ứ": 2024,
      "潘": 2025,
      "歌": 2026,
      "侯": 2027,
      "廣": 2028,
      "廖": 2029,
      "臨": 2030,
      "临": 2031,
      "ӄ": 2032,
      "據": 2033,
      "据": 2034,
      "拠": 2035,
      "戴": 2036,
      "玉": 2037,
      "强": 2038,
      "暮": 2039,
      "混": 2040,
      "Њ": 2041,
      "迪": 2042,
      "ং": 2043,
      "ল": 2044,
      "ম": 2045,
      "ী": 2046,
      "與": 2047,
      "栄": 2048,
      "羊": 2049,
      "긴": 2050,
      "형": 2051,
      "님": 2052,
      "금": 2053,
      "군": 2054,
      "嬪": 2055,
      "ň": 2056,
      "ִ": 2057,
      "֑": 2058,
      "綿": 2059,
      "绵": 2060,
      "ぽ": 2061,
      "쉬": 2062,
      "즈": 2063,
      "造": 2064,
      "和": 2065,
      "补": 2066,
      "ễ": 2067,
      "寸": 2068,
      "永": 2069,
      "芳": 2070,
      "̣": 2071,
      "菱": 2072,
      "東": 2073,
      "製": 2074,
      "薬": 2075,
      "確": 2076,
      "确": 2077,
      "름": 2078,
      "답": 2079,
      "ര": 2080,
      "ാ": 2081,
      "ജ": 2082,
      "്": 2083,
      "യ": 2084,
      "ങ": 2085,
      "ൾ": 2086,
      "Э": 2087,
      "依": 2088,
      "族": 2089,
      "충": 2090,
      "目": 2091,
      "ɬ": 2092,
      "ʟ": 2093,
      "止": 2094,
      "≤": 2095,
      "孙": 2096,
      "祖": 2097,
      "Þ": 2098,
      "束": 2099,
      "機": 2100,
      "巧": 2101,
      "圖": 2102,
      "彙": 2103,
      "포": 2104,
      "놀": 2105,
      "춤": 2106,
      "뜻": 2107,
      "했": 2108,
      "네": 2109,
      "𐊺": 2110,
      "珊": 2111,
      "激": 2112,
      "必": 2113,
      "勝": 2114,
      "↓": 2115,
      "納": 2116,
      "什": 2117,
      "墨": 2118,
      "秦": 2119,
      "婦": 2120,
      "從": 2121,
      "従": 2122,
      "鳴": 2123,
      "鸣": 2124,
      "築": 2125,
      "筑": 2126,
      "ℓ": 2127,
      "聯": 2128,
      "合": 2129,
      "壤": 2130,
      "行": 2131,
      "折": 2132,
      "ų": 2133,
      "ம": 2134,
      "வ": 2135,
      "ட": 2136,
      "滝": 2137,
      "ए": 2138,
      "눈": 2139,
      "도": 2140,
      "행": 2141,
      "芝": 2142,
      "ざ": 2143,
      "―": 2144,
      "먹": 2145,
      "ٚ": 2146,
      "Й": 2147,
      "重": 2148,
      "工": 2149,
      "ď": 2150,
      "Ə": 2151,
      "瀋": 2152,
      "歴": 2153,
      "ỳ": 2154,
      "㎡": 2155,
      "ց": 2156,
      "խ": 2157,
      "ध": 2158,
      "ी": 2159,
      "ज": 2160,
      "Ð": 2161,
      "夢": 2162,
      "梦": 2163,
      "啄": 2164,
      "呑": 2165,
      "ờ": 2166,
      "น": 2167,
      "ค": 2168,
      "พ": 2169,
      "ม": 2170,
      "橄": 2171,
      "欖": 2172,
      "虎": 2173,
      "通": 2174,
      "用": 2175,
      "股": 2176,
      "份": 2177,
      "有": 2178,
      "限": 2179,
      "入": 2180,
      "流": 2181,
      "妻": 2182,
      "ဒ": 2183,
      "ု": 2184,
      "ေ": 2185,
      "လ": 2186,
      "င": 2187,
      "毛": 2188,
      "ʽ": 2189,
      "汪": 2190,
      "": 2191,
      "聽": 2192,
      "濤": 2193,
      "림": 2194,
      "玄": 2195,
      "忍": 2196,
      "오": 2197,
      "빠": 2198,
      "란": 2199,
      "員": 2200,
      "附": 2201,
      "近": 2202,
      "佬": 2203,
      "삼": 2204,
      "켜": 2205,
      "න": 2206,
      "ො": 2207,
      "ැ": 2208,
      "ペ": 2209,
      "ആ": 2210,
      "ണ": 2211,
      "വ": 2212,
      "ു": 2213,
      "ധ": 2214,
      "ി": 2215,
      "ദ": 2216,
      "溫": 2217,
      "温": 2218,
      "灵": 2219,
      "霊": 2220,
      "潮": 2221,
      "ŷ": 2222,
      "牛": 2223,
      "單": 2224,
      "璽": 2225,
      "ļ": 2226,
      "ˤ": 2227,
      "酸": 2228,
      "☃": 2229,
      "曼": 2230,
      "俞": 2231,
      "更": 2232,
      "寅": 2233,
      "제": 2234,
      "베": 2235,
      "拂": 2236,
      "菻": 2237,
      "콘": 2238,
      "反": 2239,
      "貪": 2240,
      "腐": 2241,
      "倒": 2242,
      "扁": 2243,
      "嶺": 2244,
      "⁰": 2245,
      "Ο": 2246,
      "屬": 2247,
      "属": 2248,
      "무": 2249,
      "致": 2250,
      "恆": 2251,
      "赞": 2252,
      "多": 2253,
      "鼠": 2254,
      "ລ": 2255,
      "າ": 2256,
      "ບ": 2257,
      "亡": 2258,
      "ὅ": 2259,
      "幸": 2260,
      "복": 2261,
      "힐": 2262,
      "許": 2263,
      "冠": 2264,
      "망": 2265,
      "스": 2266,
      "々": 2267,
      "州": 2268,
      "建": 2269,
      "ỷ": 2270,
      "散": 2271,
      "ọ": 2272,
      "ܐ": 2273,
      "か": 2274,
      "私": 2275,
      "爆": 2276,
      "弾": 2277,
      "樂": 2278,
      "要": 2279,
      "包": 2280,
      "誘": 2281,
      "拐": 2282,
      "報": 2283,
      "→": 2284,
      "♡": 2285,
      "ԛ": 2286,
      "ụ": 2287,
      "곰": 2288,
      "배": 2289,
      "항": 2290,
      "국": 2291,
      "٧": 2292,
      "悲": 2293,
      "善": 2294,
      "ﺏ": 2295,
      "师": 2296,
      "誕": 2297,
      "诞": 2298,
      "̍": 2299,
      "雨": 2300,
      "滴": 2301,
      "皐": 2302,
      "韩": 2303,
      "佩": 2304,
      "泉": 2305,
      "恐": 2306,
      "怖": 2307,
      "セ": 2308,
      "じ": 2309,
      "伙": 2310,
      "伴": 2311,
      "ﺍ": 2312,
      "희": 2313,
      "ἁ": 2314,
      "ڢ": 2315,
      "預": 2316,
      "预": 2317,
      "戸": 2318,
      "몬": 2319,
      "ү": 2320,
      "姚": 2321,
      "淳": 2322,
      "耀": 2323,
      "終": 2324,
      "於": 2325,
      "進": 2326,
      "了": 2327,
      "戲": 2328,
      "劇": 2329,
      "う": 2330,
      "ई": 2331,
      "ﻭ": 2332,
      "者": 2333,
      "Ą": 2334,
      "떠": 2335,
      "들": 2336,
      "을": 2337,
      "올": 2338,
      "啟": 2339,
      "版": 2340,
      "버": 2341,
      "都": 2342,
      "𐋏": 2343,
      "გ": 2344,
      "პ": 2345,
      "給": 2346,
      "给": 2347,
      "杨": 2348,
      "寨": 2349,
      "¡": 2350,
      "叶": 2351,
      "皓": 2352,
      "體": 2353,
      "অ": 2354,
      "দ": 2355,
      "হ": 2356,
      "্": 2357,
      "য": 2358,
      "Ŏ": 2359,
      "米": 2360,
      "盤": 2361,
      "坝": 2362,
      "₩": 2363,
      "ὸ": 2364,
      "Ǝ": 2365,
      "紗": 2366,
      "稀": 2367,
      "ㄴ": 2368,
      "Л": 2369,
      "ꦛ": 2370,
      "ꦢ": 2371,
      "참": 2372,
      "秒": 2373,
      "間": 2374,
      "ष": 2375,
      "ट": 2376,
      "죽": 2377,
      "র": 2378,
      "ொ": 2379,
      "ல": 2380,
      "峒": 2381,
      "宮": 2382,
      "ກ": 2383,
      "ີ": 2384,
      "ດ": 2385,
      "ວ": 2386,
      "ອ": 2387,
      "ນ": 2388,
      "¹": 2389,
      "摩": 2390,
      "拽": 2391,
      "伐": 2392,
      "ё": 2393,
      "■": 2394,
      "ょ": 2395,
      "ぴ": 2396,
      "共": 2397,
      "遗": 2398,
      "ܕ": 2399,
      "ܲ": 2400,
      "ܪ": 2401,
      "ܓ": 2402,
      "ܼ": 2403,
      "ܫ": 2404,
      "ܬ": 2405,
      "少": 2406,
      "軽": 2407,
      "令": 2408,
      "̃": 2409,
      "抗": 2410,
      "战": 2411,
      "争": 2412,
      "面": 2413,
      "记": 2414,
      "방": 2415,
      "贵": 2416,
      "省": 2417,
      "节": 2418,
      "区": 2419,
      "识": 2420,
      "别": 2421,
      "办": 2422,
      "室": 2423,
      "해": 2424,
      "빈": 2425,
      "窟": 2426,
      "相": 2427,
      "距": 2428,
      "餘": 2429,
      "Ψ": 2430,
      "ˑ": 2431,
      "云": 2432,
      "僧": 2433,
      "鹤": 2434,
      "鱀": 2435,
      "雀": 2436,
      "殼": 2437,
      "壳": 2438,
      "殻": 2439,
      "ἶ": 2440,
      "烏": 2441,
      "技": 2442,
      "治": 2443,
      "府": 2444,
      "ញ": 2445,
      "ច": 2446,
      "រ": 2447,
      "ៀ": 2448,
      "ܡ": 2449,
      "ܝ": 2450,
      "ӌ": 2451,
      "嘆": 2452,
      "Ⴎ": 2453,
      "ਪ": 2454,
      "ੰ": 2455,
      "ਜ": 2456,
      "ੀ": 2457,
      "𐩫": 2458,
      "𐩬": 2459,
      "𐩵": 2460,
      "𐩩": 2461,
      "擀": 2462,
      "毡": 2463,
      "薫": 2464,
      "ย": 2465,
      "ข": 2466,
      "ศ": 2467,
      "瀬": 2468,
      "え": 2469,
      "图": 2470,
      "図": 2471,
      "ʲ": 2472,
      "һ": 2473,
      "若": 2474,
      "爱": 2475,
      "ᠮ": 2476,
      "ᠣ": 2477,
      "ᠵ": 2478,
      "ᡳ": 2479,
      "ᡥ": 2480,
      "ᠶ": 2481,
      "ᠠ": 2482,
      "ᠰ": 2483,
      "ሥ": 2484,
      "ላ": 2485,
      "ሴ": 2486,
      "絶": 2487,
      "け": 2488,
      "Ʌ": 2489,
      "輸": 2490,
      "输": 2491,
      "총": 2492,
      "쏘": 2493,
      "童": 2494,
      "远": 2495,
      "杀": 2496,
      "내": 2497,
      "團": 2498,
      "团": 2499,
      "団": 2500,
      "ˁ": 2501,
      "ﺻ": 2502,
      "ﻠ": 2503,
      "ﮯ": 2504,
      "／": 2505,
      "靜": 2506,
      "静": 2507,
      "淚": 2508,
      "彭": 2509,
      "启": 2510,
      "猿": 2511,
      "搜": 2512,
      "Ἄ": 2513,
      "ű": 2514,
      "孝": 2515,
      "宣": 2516,
      "后": 2517,
      "ⴰ": 2518,
      "ⵅ": 2519,
      "ⵏ": 2520,
      "ⵓ": 2521,
      "ⵛ": 2522,
      "Ë": 2523,
      "泽": 2524,
      "坤": 2525,
      "鐘": 2526,
      "離": 2527,
      "彝": 2528,
      "Ж": 2529,
      "泣": 2530,
      "종": 2531,
      "餅": 2532,
      "Ē": 2533,
      "誇": 2534,
      "ゃ": 2535,
      "怪": 2536,
      "幾": 2537,
      "走": 2538,
      "向": 2539,
      "午": 2540,
      "介": 2541,
      "紹": 2542,
      "⊙": 2543,
      "授": 2544,
      "ก": 2545,
      "๊": 2546,
      "ั": 2547,
      "际": 2548,
      "ṟ": 2549,
      "ᬜ": 2550,
      "ᬶ": 2551,
      "ᬭ": 2552,
      "ᭀ": 2553,
      "ᬓ": 2554,
      "ᬤ": 2555,
      "ᬸ": 2556,
      "ᬮ": 2557,
      "᭄": 2558,
      "採": 2559,
      "바": 2560,
      "范": 2561,
      "傑": 2562,
      "ϋ": 2563,
      "ご": 2564,
      "შ": 2565,
      "ҳ": 2566,
      "ჯ": 2567,
      "ხ": 2568,
      "홍": 2569,
      "는": 2570,
      "ต": 2571,
      "ำ": 2572,
      "ุ": 2573,
      "精": 2574,
      "分": 2575,
      "裂": 2576,
      "病": 2577,
      "當": 2578,
      "兵": 2579,
      "就": 2580,
      "慕": 2581,
      "沛": 2582,
      "洋": 2583,
      "ʁ": 2584,
      "ʍ": 2585,
      "ὑ": 2586,
      "也": 2587,
      "快": 2588,
      "术": 2589,
      "귀": 2590,
      "អ": 2591,
      "ង": 2592,
      "គ": 2593,
      "វ": 2594,
      "ว": 2595,
      "ช": 2596,
      "Ә": 2597,
      "声": 2598,
      "ओ": 2599,
      "Ч": 2600,
      "စ": 2601,
      "ာ": 2602,
      "篆": 2603,
      "吴": 2604,
      "臺": 2605,
      "Ţ": 2606,
      "ᾰ": 2607,
      "ῠ": 2608,
      "棠": 2609,
      "湾": 2610,
      "莫": 2611,
      "ᮊ": 2612,
      "ᮧ": 2613,
      "ᮒ": 2614,
      "碧": 2615,
      "剑": 2616,
      "麥": 2617,
      "豪": 2618,
      "昆": 2619,
      "罕": 2620,
      "ớ": 2621,
      "Վ": 2622,
      "շ": 2623,
      "舊": 2624,
      "旧": 2625,
      "♀": 2626,
      "면": 2627,
      "纖": 2628,
      "纤": 2629,
      "繊": 2630,
      "书": 2631,
      "韻": 2632,
      "獎": 2633,
      "輯": 2634,
      "獣": 2635,
      "嫁": 2636,
      "ダ": 2637,
      "ョ": 2638,
      "ﺝ": 2639,
      "Ḫ": 2640,
      "娼": 2641,
      "妓": 2642,
      "过": 2643,
      "去": 2644,
      "Ū": 2645,
      "穆": 2646,
      "용": 2647,
      "投": 2648,
      "首": 2649,
      "乙": 2650,
      "床": 2651,
      "광": 2652,
      "염": 2653,
      "타": 2654,
      "標": 2655,
      "準": 2656,
      "語": 2657,
      "ම": 2658,
      "ි": 2659,
      "ශ": 2660,
      "්": 2661,
      "ර": 2662,
      "元": 2663,
      "総": 2664,
      "選": 2665,
      "挙": 2666,
      "制": 2667,
      "Բ": 2668,
      "ձ": 2669,
      "գ": 2670,
      "ɓ": 2671,
      "⇄": 2672,
      "ֱ": 2673,
      "֖": 2674,
      "旗": 2675,
      "력": 2676,
      "鸭": 2677,
      "俱": 2678,
      "篮": 2679,
      "舎": 2680,
      "𐤡": 2681,
      "仮": 2682,
      "악": 2683,
      "傳": 2684,
      "追": 2685,
      "憶": 2686,
      "ふ": 2687,
      "尚": 2688,
      "虫": 2689,
      "你": 2690,
      "일": 2691,
      "디": 2692,
      "어": 2693,
      "Қ": 2694,
      "ұ": 2695,
      "ස": 2696,
      "ේ": 2697,
      "论": 2698,
      "坛": 2699,
      "驚": 2700,
      "워": 2701,
      "̌": 2702,
      "ꦥ": 2703,
      "Ω": 2704,
      "왈": 2705,
      "츠": 2706,
      "ٗ": 2707,
      "ۤ": 2708,
      "↑": 2709,
      "ื": 2710,
      "ĭ": 2711,
      "এ": 2712,
      "अ": 2713,
      "煎": 2714,
      "Ș": 2715,
      "微": 2716,
      "Ἀ": 2717,
      "ڵ": 2718,
      "應": 2719,
      "应": 2720,
      "応": 2721,
      "假": 2722,
      "冷": 2723,
      "̞": 2724,
      "氣": 2725,
      "气": 2726,
      "気": 2727,
      "拳": 2728,
      "ล": 2729,
      "娃": 2730,
      "亭": 2731,
      "黎": 2732,
      "苗": 2733,
      "黒": 2734,
      "鼓": 2735,
      "揺": 2736,
      "ぎ": 2737,
      "இ": 2738,
      "க": 2739,
      "ய": 2740,
      "推": 2741,
      "写": 2742,
      "果": 2743,
      "桜": 2744,
      "後": 2745,
      "弗": 2746,
      "迟": 2747,
      "ĉ": 2748,
      "각": 2749,
      "ہ": 2750,
      "ꤷ": 2751,
      "ꥁ": 2752,
      "ꤼ": 2753,
      "損": 2754,
      "损": 2755,
      "ů": 2756,
      "帛": 2757,
      "仄": 2758,
      "Ī": 2759,
      "仲": 2760,
      "士": 2761,
      "̱": 2762,
      "𐌓": 2763,
      "교": 2764,
      "ھ": 2765,
      "尝": 2766,
      "醋": 2767,
      "仕": 2768,
      "ٹ": 2769,
      "ɲ": 2770,
      "糖": 2771,
      "親": 2772,
      "屹": 2773,
      "ธ": 2774,
      "輪": 2775,
      "轮": 2776,
      "狄": 2777,
      "প": 2778,
      "譲": 2779,
      "ධ": 2780,
      "ӷ": 2781,
      "籠": 2782,
      "毒": 2783,
      "년": 2784,
      "繼": 2785,
      "继": 2786,
      "継": 2787,
      "э": 2788,
      "每": 2789,
      "毎": 2790,
      "談": 2791,
      "整": 2792,
      "혁": 2793,
      "つ": 2794,
      "빤": 2795,
      "決": 2796,
      "断": 2797,
      "缶": 2798,
      "첩": 2799,
      "鑛": 2800,
      "礦": 2801,
      "矿": 2802,
      "鉱": 2803,
      "륜": 2804,
      "태": 2805,
      "ំ": 2806,
      "យ": 2807,
      "ម": 2808,
      "赤": 2809,
      "ܚ": 2810,
      "ܿ": 2811,
      "勇": 2812,
      "穴": 2813,
      "柵": 2814,
      "Ἔ": 2815,
      "ữ": 2816,
      "च": 2817,
      "瞬": 2818,
      "ほ": 2819,
      "ど": 2820,
      "錄": 2821,
      "录": 2822,
      "録": 2823,
      "猫": 2824,
      "ह": 2825,
      "聞": 2826,
      "闻": 2827,
      "𐭕": 2828,
      "𐭉": 2829,
      "𐭓": 2830,
      "𐭃": 2831,
      "차": 2832,
      "โ": 2833,
      "森": 2834,
      "繪": 2835,
      "绘": 2836,
      "絵": 2837,
      "點": 2838,
      "既": 2839,
      "석": 2840,
      "Ę": 2841,
      "謝": 2842,
      "ừ": 2843,
      "湘": 2844,
      "ђ": 2845,
      "ћ": 2846,
      "吃": 2847,
      "펀": 2848,
      "송": 2849,
      "평": 2850,
      "상": 2851,
      "회": 2852,
      "驅": 2853,
      "驱": 2854,
      "駆": 2855,
      "ੁ": 2856,
      "ਰ": 2857,
      "ਦ": 2858,
      "ਆ": 2859,
      "ꦪ": 2860,
      "ʎ": 2861,
      "ŗ": 2862,
      "陰": 2863,
      "낭": 2864,
      "连": 2865,
      "׳": 2866,
      "‰": 2867,
      "Ô": 2868,
      "ˌ": 2869,
      "Ɐ": 2870,
      "雷": 2871,
      "誠": 2872,
      "突": 2873,
      "ප": 2874,
      "指": 2875,
      "科": 2876,
      "េ": 2877,
      "晝": 2878,
      "昼": 2879,
      "奧": 2880,
      "爾": 2881,
      "ಕ": 2882,
      "ೆ": 2883,
      "吹": 2884,
      "奈": 2885,
      "导": 2886,
      "统": 2887,
      "佛": 2888,
      "委": 2889,
      "猛": 2890,
      "髢": 2891,
      "Ċ": 2892,
      "朴": 2893,
      "琳": 2894,
      "Ю": 2895,
      "향": 2896,
      "適": 2897,
      "适": 2898,
      "东": 2899,
      "儺": 2900,
      "剧": 2901,
      "･": 2902,
      "ত": 2903,
      "銘": 2904,
      "ග": 2905,
      "禧": 2906,
      "閔": 2907,
      "泳": 2908,
      "珪": 2909,
      "ฉ": 2910,
      "등": 2911,
      "燃": 2912,
      "燈": 2913,
      "옥": 2914,
      "ゼ": 2915,
      "밥": 2916,
      "黙": 2917,
      "敏": 2918,
      "Ď": 2919,
      "貞": 2920,
      "観": 2921,
      "震": 2922,
      "ყ": 2923,
      "雲": 2924,
      "჻": 2925,
      "苻": 2926,
      "ٔ": 2927,
      "≫": 2928,
      "席": 2929,
      "ϊ": 2930,
      "兜": 2931,
      "紙": 2932,
      "飛": 2933,
      "纱": 2934,
      "解": 2935,
      "물": 2936,
      "覽": 2937,
      "览": 2938,
      "⇒": 2939,
      "広": 2940,
      "ؤ": 2941,
      "√": 2942,
      "Ủ": 2943,
      "取": 2944,
      "＿": 2945,
      "♪": 2946,
      "関": 2947,
      "掲": 2948,
      "載": 2949,
      "법": 2950,
      "尹": 2951,
      "哲": 2952,
      "雄": 2953,
      "鑒": 2954,
      "鉴": 2955,
      "鑑": 2956,
      "叙": 2957,
      "운": 2958,
      "ủ": 2959,
      "온": 2960,
      "昔": 2961,
      "身": 2962,
      "살": 2963,
      "반": 2964,
      "跏": 2965,
      "惟": 2966,
      "͟": 2967,
      "雁": 2968,
      "픈": 2969,
      "肉": 2970,
      "𐢕": 2971,
      "𐢃": 2972,
      "𐢋": 2973,
      "𐢈": 2974,
      "洁": 2975,
      "沈": 2976,
      "儒": 2977,
      "취": 2978,
      "琉": 2979,
      "群": 2980,
      "对": 2981,
      "占": 2982,
      "领": 2983,
      "圳": 2984,
      "巢": 2985,
      "巣": 2986,
      "注": 2987,
      "各": 2988,
      "헨": 2989,
      "‎": 2990,
      "歯": 2991,
      "枚": 2992,
      "জ": 2993,
      "權": 2994,
      "떴": 2995,
      "沖": 2996,
      "縄": 2997,
      "名": 2998,
      "飄": 2999,
      "ᠴ": 3000,
      "ᠭ": 3001,
      "ᠨ": 3002,
      "ण": 3003,
      "庄": 3004,
      "拾": 3005,
      "復": 3006,
      "复": 3007,
      "洪": 3008,
      "猷": 3009,
      "॥": 3010,
      "÷": 3011,
      "诚": 3012,
      "讌": 3013,
      "எ": 3014,
      "ை": 3015,
      "宏": 3016,
      "筆": 3017,
      "笔": 3018,
      "ĩ": 3019,
      "モ": 3020,
      "점": 3021,
      "霄": 3022,
      "葛": 3023,
      "Ӡ": 3024,
      "작": 3025,
      "癀": 3026,
      "ɖ": 3027,
      "息": 3028,
      "˞": 3029,
      "淵": 3030,
      "ɡ": 3031,
      "̈": 3032,
      "Ṛ": 3033,
      "ள": 3034,
      "ព": 3035,
      "ៃ": 3036,
      "ែ": 3037,
      "藍": 3038,
      "坊": 3039,
      "習": 3040,
      "习": 3041,
      "非": 3042,
      "垂": 3043,
      "Ê": 3044,
      "덕": 3045,
      "ℌ": 3046,
      "芽": 3047,
      "猎": 3048,
      "齊": 3049,
      "様": 3050,
      "崑": 3051,
      "崙": 3052,
      "舶": 3053,
      "珍": 3054,
      "織": 3055,
      "訳": 3056,
      "혼": 3057,
      "열": 3058,
      "№": 3059,
      "马": 3060,
      "漁": 3061,
      "渔": 3062,
      "တ": 3063,
      "႐": 3064,
      "条": 3065,
      "件": 3066,
      "ˋ": 3067,
      "場": 3068,
      "감": 3069,
      "독": 3070,
      "賽": 3071,
      "蕉": 3072,
      "岭": 3073,
      "越": 3074,
      "촉": 3075,
      "併": 3076,
      "ឡ": 3077,
      "ដ": 3078,
      "ឋ": 3079,
      "熙": 3080,
      "녀": 3081,
      "狗": 3082,
      "耶": 3083,
      "短": 3084,
      "속": 3085,
      "예": 3086,
      "邱": 3087,
      "漳": 3088,
      "劉": 3089,
      "红": 3090,
      "箭": 3091,
      "館": 3092,
      "狐": 3093,
      "偃": 3094,
      "斌": 3095,
      "뉴": 3096,
      "吐": 3097,
      "呼": 3098,
      "鄕": 3099,
      "藥": 3100,
      "救": 3101,
      "急": 3102,
      "硏": 3103,
      "ῑ": 3104,
      "ῐ": 3105,
      "壓": 3106,
      "昇": 3107,
      "֫": 3108,
      "֥": 3109,
      "қ": 3110,
      "敦": 3111,
      "印": 3112,
      "尼": 3113,
      "歸": 3114,
      "僑": 3115,
      "協": 3116,
      "忘": 3117,
      "鉄": 3118,
      "偉": 3119,
      "霆": 3120,
      "鮮": 3121,
      "棋": 3122,
      "ﷺ": 3123,
      "华": 3124,
      "̫": 3125,
      "埴": 3126,
      "闘": 3127,
      "剣": 3128,
      "葉": 3129,
      "夷": 3130,
      "収": 3131,
      "џ": 3132,
      "٢": 3133,
      "ʊ": 3134,
      "।": 3135,
      "敬": 3136,
      "붕": 3137,
      "류": 3138,
      "건": 3139,
      "ᨉ": 3140,
      "卒": 3141,
      "ɽ": 3142,
      "晃": 3143,
      "育": 3144,
      "拥": 3145,
      "核": 3146,
      "熊": 3147,
      "𐋇": 3148,
      "𐊶": 3149,
      "瑟": 3150,
      "邯": 3151,
      "վ": 3152,
      "ծ": 3153,
      "麻": 3154,
      "达": 3155,
      "관": 3156,
      "ѣ": 3157,
      "剛": 3158,
      "ɣ": 3159,
      "梁": 3160,
      "施": 3161,
      "ɴ": 3162,
      "宋": 3163,
      "篇": 3164,
      "직": 3165,
      "ۢ": 3166,
      "仍": 3167,
      "ٖ": 3168,
      "Ὀ": 3169,
      "ᾳ": 3170,
      "層": 3171,
      "錦": 3172,
      "Ъ": 3173,
      "쟁": 3174,
      "‍": 3175,
      "夕": 3176,
      "焼": 3177,
      "ʌ": 3178,
      "姜": 3179,
      "赴": 3180,
      "戰": 3181,
      "왜": 3182,
      "楼": 3183,
      "틀": 3184,
      "受": 3185,
      "Ӂ": 3186,
      "ʋ": 3187,
      "裔": 3188,
      "衝": 3189,
      "ٓ": 3190,
      "縱": 3191,
      "纵": 3192,
      "縦": 3193,
      "ਕ": 3194,
      "禎": 3195,
      "ろ": 3196,
      "←": 3197,
      "ể": 3198,
      "妃": 3199,
      "ῃ": 3200,
      "唯": 3201,
      "거": 3202,
      "١": 3203,
      "骁": 3204,
      "军": 3205,
      "恒": 3206,
      "弟": 3207,
      "閃": 3208,
      "辰": 3209,
      "🍆": 3210,
      "テ": 3211,
      "额": 3212,
      "度": 3213,
      "徐": 3214,
      "绍": 3215,
      "岚": 3216,
      "洞": 3217,
      "益": 3218,
      "裕": 3219,
      "丈": 3220,
      "Ⴖ": 3221,
      "Ⴌ": 3222,
      "Ⴢ": 3223,
      "깜": 3224,
      "調": 3225,
      "症": 3226,
      "頂": 3227,
      "顶": 3228,
      "๋": 3229,
      "瞎": 3230,
      "牧": 3231,
      "角": 3232,
      "游": 3233,
      "园": 3234,
      "盏": 3235,
      "铳": 3236,
      "⸣": 3237,
      "ᾱ": 3238,
      "̂": 3239,
      "殿": 3240,
      "路": 3241,
      "項": 3242,
      "말": 3243,
      "톰": 3244,
      "ɨ": 3245,
      "ស": 3246,
      "ោ": 3247,
      "ធ": 3248,
      "ុ": 3249,
      "ៈ": 3250,
      "狂": 3251,
      "積": 3252,
      "积": 3253,
      "头": 3254,
      "ὄ": 3255,
      "唱": 3256,
      "키": 3257,
      "आ": 3258,
      "ब": 3259,
      "ʂ": 3260,
      "姉": 3261,
      "－": 3262,
      "耿": 3263,
      "𐊴": 3264,
      "砂": 3265,
      "ቤ": 3266,
      "ተ": 3267,
      "顯": 3268,
      "衍": 3269,
      "慶": 3270,
      "綏": 3271,
      "肅": 3272,
      "：": 3273,
      "춘": 3274,
      "앵": 3275,
      "最": 3276,
      "晩": 3277,
      "餐": 3278,
      "ঁ": 3279,
      "₡": 3280,
      "∪": 3281,
      "ぶ": 3282,
      "羽": 3283,
      "량": 3284,
      "ㅎ": 3285,
      "楊": 3286,
      "瑞": 3287,
      "★": 3288,
      "域": 3289,
      "단": 3290,
      "ӿ": 3291,
      "ܠ": 3292,
      "ܸ": 3293,
      "᷉": 3294,
      "ិ": 3295,
      "訪": 3296,
      "访": 3297,
      "궁": 3298,
      "岬": 3299,
      "諒": 3300,
      "来": 3301,
      "盗": 3302,
      "纳": 3303,
      "ỗ": 3304,
      "애": 3305,
      "ꦟ": 3306,
      "ฯ": 3307,
      "※": 3308,
      "賈": 3309,
      "불": 3310,
      "멸": 3311,
      "琦": 3312,
      "澤": 3313,
      "Ї": 3314,
      "ゑ": 3315,
      "Ⴂ": 3316,
      "Ⴒ": 3317,
      "琯": 3318,
      "욕": 3319,
      "蛇": 3320,
      "𐊰": 3321,
      "Є": 3322,
      "勞": 3323,
      "劳": 3324,
      "労": 3325,
      "敢": 3326,
      "ꞵ": 3327,
      "抓": 3328,
      "悠": 3329,
      "щ": 3330,
      "Ⴅ": 3331,
      "帥": 3332,
      "余": 3333,
      "漫": 3334,
      "仙": 3335,
      "根": 3336,
      "鎌": 3337,
      "⟦": 3338,
      "卜": 3339,
      "纂": 3340,
      "鄉": 3341,
      "හ": 3342,
      "ෝ": 3343,
      "ඩ": 3344,
      "ය": 3345,
      "右": 3346,
      "留": 3347,
      "ී": 3348,
      "滿": 3349,
      "ǚ": 3350,
      "ृ": 3351,
      "敵": 3352,
      "敌": 3353,
      "처": 3354,
      "럼": 3355,
      "Ӝ": 3356,
      "ƿ": 3357,
      "药": 3358,
      "坌": 3359,
      "坑": 3360,
      "支": 3361,
      "ὡ": 3362,
      "迷": 3363,
      "危": 3364,
      "빨": 3365,
      "요": 3366,
      "피": 3367,
      "曜": 3368,
      "任": 3369,
      "英": 3370,
      "圍": 3371,
      "Έ": 3372,
      "概": 3373,
      "况": 3374,
      "陸": 3375,
      "Ⴃ": 3376,
      "ө": 3377,
      "ղ": 3378,
      "ᨁ": 3379,
      "富": 3380,
      "薛": 3381,
      "ኃ": 3382,
      "ይ": 3383,
      "ሌ": 3384,
      "顺": 3385,
      "♥": 3386,
      "犬": 3387,
      "육": 3388,
      "ɧ": 3389,
      "浩": 3390,
      "더": 3391,
      "寧": 3392,
      "塘": 3393,
      "甦": 3394,
      "至": 3395,
      "輩": 3396,
      "泊": 3397,
      "求": 3398,
      "별": 3399,
      "굿": 3400,
      "탈": 3401,
      "᮪": 3402,
      "ᮠ": 3403,
      "ᮚ": 3404,
      "ᮤ": 3405,
      "ᮘ": 3406,
      "₱": 3407,
      "ۦ": 3408,
      "謁": 3409,
      "발": 3410,
      "길": 3411,
      "置": 3412,
      "Ӿ": 3413,
      "肹": 3414,
      "岐": 3415,
      "具": 3416,
      "🍑": 3417,
      "助": 3418,
      "盘": 3419,
      "ᮓ": 3420,
      "ᮝ": 3421,
      "ᮏ": 3422,
      "봄": 3423,
      "Ы": 3424,
      "愕": 3425,
      "稚": 3426,
      "ª": 3427,
      "味": 3428,
      "늘": 3429,
      "桐": 3430,
      "放": 3431,
      "Ӷ": 3432,
      "修": 3433,
      "𐊥": 3434,
      "අ": 3435,
      "ෂ": 3436,
      "補": 3437,
      "ት": 3438,
      "ግ": 3439,
      "ር": 3440,
      "ኛ": 3441,
      "鍊": 3442,
      "炼": 3443,
      "錬": 3444,
      "业": 3445,
      "ں": 3446,
      "备": 3447,
      "Ķ": 3448,
      "Գ": 3449,
      "և": 3450,
      "祐": 3451,
      "步": 3452,
      "両": 3453,
      "∧": 3454,
      "ರ": 3455,
      "ಾ": 3456,
      "ಜ": 3457,
      "ฟ": 3458,
      "ṫ": 3459,
      "게": 3460,
      "字": 3461,
      "ɾ": 3462,
      "械": 3463,
      "ං": 3464,
      "ල": 3465,
      "⋋": 3466,
      "痴": 3467,
      "ׂ": 3468,
      "苦": 3469,
      "간": 3470,
      "병": 3471,
      "Ã": 3472,
      "𒄩": 3473,
      "𒅀": 3474,
      "𒀀": 3475,
      "𒉌": 3476,
      "욱": 3477,
      "మ": 3478,
      "ా": 3479,
      "త": 3480,
      "ర": 3481,
      "ం": 3482,
      "청": 3483,
      "풍": 3484,
      "们": 3485,
      "厚": 3486,
      "兒": 3487,
      "儿": 3488,
      "児": 3489,
      "畑": 3490,
      "술": 3491,
      "伽": 3492,
      "̝": 3493,
      "願": 3494,
      "愿": 3495,
      "钱": 3496,
      "銭": 3497,
      "프": 3498,
      "젝": 3499,
      "까": 3500,
      "龜": 3501,
      "龟": 3502,
      "亀": 3503,
      "时": 3504,
      "防": 3505,
      "试": 3506,
      "ὖ": 3507,
      "寶": 3508,
      "焔": 3509,
      "̊": 3510,
      "Ԙ": 3511,
      "品": 3512,
      "抄": 3513,
      "減": 3514,
      "减": 3515,
      "창": 3516,
      "乗": 3517,
      "ㅌ": 3518,
      "ۚ": 3519,
      "𐊱": 3520,
      "能": 3521,
      "変": 3522,
      "您": 3523,
      "享": 3524,
      "妣": 3525,
      "隹": 3526,
      "源": 3527,
      "ﻕ": 3528,
      "헬": 3529,
      "终": 3530,
      "紳": 3531,
      "颍": 3532,
      "端": 3533,
      "蓮": 3534,
      "專": 3535,
      "专": 3536,
      "専": 3537,
      "埔": 3538,
      "ⁿ": 3539,
      "𐊵": 3540,
      "Ў": 3541,
      "飞": 3542,
      "住": 3543,
      "征": 3544,
      "困": 3545,
      "末": 3546,
      "ḫ": 3547,
      "ณ": 3548,
      "低": 3549,
      "篤": 3550,
      "ᬧ": 3551,
      "ᬩ": 3552,
      "ᭂ": 3553,
      "ᬲ": 3554,
      "ᬄ": 3555,
      "딸": 3556,
      "內": 3557,
      "廚": 3558,
      "囚": 3559,
      "７": 3560,
      "０": 3561,
      "硔": 3562,
      "ා": 3563,
      "ත": 3564,
      "速": 3565,
      "殖": 3566,
      "湯": 3567,
      "汤": 3568,
      "泗": 3569,
      "沘": 3570,
      "遙": 3571,
      "ួ": 3572,
      "窝": 3573,
      "ﻗ": 3574,
      "ﻴ": 3575,
      "ﻒ": 3576,
      "梓": 3577,
      "鏡": 3578,
      "鍾": 3579,
      "Ṡ": 3580,
      "姑": 3581,
      "Ý": 3582,
      "刻": 3583,
      "뿐": 3584,
      "랴": 3585,
      "秀": 3586,
      "撰": 3587,
      "售": 3588,
      "定": 3589,
      "営": 3590,
      "ো": 3591,
      "থ": 3592,
      "♠": 3593,
      "메": 3594,
      "슨": 3595,
      "폭": 3596,
      "圻": 3597,
      "两": 3598,
      "冯": 3599,
      "祥": 3600,
      "♂": 3601,
      "족": 3602,
      "刀": 3603,
      "早": 3604,
      "货": 3605,
      "捶": 3606,
      "丸": 3607,
      "쁨": 3608,
      "Ⴑ": 3609,
      "Ⴗ": 3610,
      "크": 3611,
      "린": 3612,
      "衣": 3613,
      "轨": 3614,
      "捕": 3615,
      "玩": 3616,
      "鬼": 3617,
      "弘": 3618,
      "稳": 3619,
      "丿": 3620,
      "他": 3621,
      "균": 3622,
      "徳": 3623,
      "ᨐ": 3624,
      "幹": 3625,
      "Ğ": 3626,
      "မ": 3627,
      "ြ": 3628,
      "န": 3629,
      "်": 3630,
      "権": 3631,
      "挑": 3632,
      "ḏ": 3633,
      "杏": 3634,
      "常": 3635,
      "户": 3636,
      "籍": 3637,
      "΄": 3638,
      "ល": 3639,
      "那": 3640,
      "送": 3641,
      "ҡ": 3642,
      "Ė": 3643,
      "黨": 3644,
      "党": 3645,
      "ே": 3646,
      "ფ": 3647,
      "‚": 3648,
      "ด": 3649,
      "ꯄ": 3650,
      "ꯥ": 3651,
      "ꯈ": 3652,
      "ꯪ": 3653,
      "ꯕ": 3654,
      "변": 3655,
      "舰": 3656,
      "礮": 3657,
      "웅": 3658,
      "던": 3659,
      "𐊪": 3660,
      "ধ": 3661,
      "ﻙ": 3662,
      "務": 3663,
      "認": 3664,
      "认": 3665,
      "되": 3666,
      "靑": 3667,
      "灣": 3668,
      "僅": 3669,
      "存": 3670,
      "麟": 3671,
      "開": 3672,
      "說": 3673,
      "ܒ": 3674,
      "贾": 3675,
      "续": 3676,
      "撫": 3677,
      "而": 3678,
      "낙": 3679,
      "干": 3680,
      "压": 3681,
      "圧": 3682,
      "險": 3683,
      "险": 3684,
      "険": 3685,
      "ṡ": 3686,
      "ራ": 3687,
      "₴": 3688,
      "ۏ": 3689,
      "히": 3690,
      "읗": 3691,
      "归": 3692,
      "帰": 3693,
      "ជ": 3694,
      "夏": 3695,
      "⋊": 3696,
      "彼": 3697,
      "へ": 3698,
      "እ": 3699,
      "ስ": 3700,
      "ኤ": 3701,
      "ል": 3702,
      "凪": 3703,
      "辣": 3704,
      "糜": 3705,
      "론": 3706,
      "満": 3707,
      "翼": 3708,
      "提": 3709,
      "ത": 3710,
      "പ": 3711,
      "ച": 3712,
      "ല": 3713,
      "ക": 3714,
      "ം": 3715,
      "ἤ": 3716,
      "억": 3717,
      "క": 3718,
      "థ": 3719,
      "ﺭ": 3720,
      "卢": 3721,
      "蕭": 3722,
      "琮": 3723,
      "欽": 3724,
      "賢": 3725,
      "∆": 3726,
      "˚": 3727,
      "ὼ": 3728,
      "ʕ": 3729,
      "ܦ": 3730,
      "ܣ": 3731,
      "ܢ": 3732,
      "亲": 3733,
      "只": 3734,
      "嶽": 3735,
      "페": 3736,
      "코": 3737,
      "誼": 3738,
      "須": 3739,
      "好": 3740,
      "०": 3741,
      "१": 3742,
      "२": 3743,
      "३": 3744,
      "४": 3745,
      "५": 3746,
      "६": 3747,
      "७": 3748,
      "८": 3749,
      "९": 3750,
      "ֆ": 3751,
      "領": 3752,
      "答": 3753,
      "郵": 3754,
      "邮": 3755,
      "含": 3756,
      "吾": 3757,
      "ʘ": 3758,
      "因": 3759,
      "縁": 3760,
      "个": 3761,
      "緣": 3762,
      "稷": 3763,
      "滑": 3764,
      "顏": 3765,
      "颜": 3766,
      "顔": 3767,
      "ὢ": 3768,
      "ೈ": 3769,
      "蟲": 3770,
      "ነ": 3771,
      "ገ": 3772,
      "ሠ": 3773,
      "踊": 3774,
      "種": 3775,
      "量": 3776,
      "罡": 3777,
      "综": 3778,
      "辻": 3779,
      "暑": 3780,
      "溯": 3781,
      "辨": 3782,
      "͌": 3783,
      "嶼": 3784,
      "แ": 3785,
      "ภ": 3786,
      "ษ": 3787,
      "บ": 3788,
      "ญ": 3789,
      "諝": 3790,
      "僕": 3791,
      "坚": 3792,
      "맹": 3793,
      "∏": 3794,
      "˥": 3795,
      "喉": 3796,
      "테": 3797,
      "ɒ": 3798,
      "屯": 3799,
      "遅": 3800,
      "𐊲": 3801,
      "ฒ": 3802,
      "转": 3803,
      "費": 3804,
      "聲": 3805,
      "駱": 3806,
      "駝": 3807,
      "ﻥ": 3808,
      "毫": 3809,
      "觉": 3810,
      "覚": 3811,
      "料": 3812,
      "ꦿ": 3813,
      "ꦣ": 3814,
      "ꦉ": 3815,
      "Ӄ": 3816,
      "树": 3817,
      "ۇ": 3818,
      "斜": 3819,
      "庭": 3820,
      "승": 3821,
      "환": 3822,
      "害": 3823,
      "ք": 3824,
      "码": 3825,
      "戏": 3826,
      "酒": 3827,
      "က": 3828,
      "း": 3829,
      "घ": 3830,
      "Ϙ": 3831,
      "央": 3832,
      "ẏ": 3833,
      "训": 3834,
      "풀": 3835,
      "⁯": 3836,
      "氷": 3837,
      "번": 3838,
      "ἔ": 3839,
      "卤": 3840,
      "铭": 3841,
      "카": 3842,
      "든": 3843,
      "埃": 3844,
      "塞": 3845,
      "俄": 3846,
      "可": 3847,
      "禰": 3848,
      "ې": 3849,
      "宵": 3850,
      "உ": 3851,
      "萊": 3852,
      "熱": 3853,
      "热": 3854,
      "싶": 3855,
      "Ѕ": 3856,
      "茹": 3857,
      "翊": 3858,
      "ട": 3859,
      "ബ": 3860,
      "ള": 3861,
      "ോ": 3862,
      "ഗ": 3863,
      "譯": 3864,
      "译": 3865,
      "鶴": 3866,
      "唳": 3867,
      "皆": 3868,
      "ɸ": 3869,
      "叫": 3870,
      "蒂": 3871,
      "亥": 3872,
      "葵": 3873,
      "哈": 3874,
      "稲": 3875,
      "炭": 3876,
      "铜": 3877,
      "♯": 3878,
      "祚": 3879,
      "勤": 3880,
      "ḵ": 3881,
      "貝": 3882,
      "贝": 3883,
      "첫": 3884,
      "ſ": 3885,
      "姿": 3886,
      "稜": 3887,
      "Œ": 3888,
      "隷": 3889,
      "层": 3890,
      "샆": 3891,
      "∗": 3892,
      "ḳ": 3893,
      "氐": 3894,
      "煜": 3895,
      "計": 3896,
      "劃": 3897,
      "竹": 3898,
      "隱": 3899,
      "짓": 3900,
      "【": 3901,
      "網": 3902,
      "頁": 3903,
      "】": 3904,
      "₤": 3905,
      "ও": 3906,
      "栴": 3907,
      "능": 3908,
      "സ": 3909,
      "മ": 3910,
      "资": 3911,
      "其": 3912,
      "栽": 3913,
      "押": 3914,
      "階": 3915,
      "阶": 3916,
      "ĺ": 3917,
      "ខ": 3918,
      "ὺ": 3919,
      "蕾": 3920,
      "⊕": 3921,
      "샌": 3922,
      "借": 3923,
      "陀": 3924,
      "企": 3925,
      "ﻡ": 3926,
      "批": 3927,
      "薄": 3928,
      "照": 3929,
      "ẖ": 3930,
      "曇": 3931,
      "Щ": 3932,
      "함": 3933,
      "Ħ": 3934,
      "げ": 3935,
      "芬": 3936,
      "ብ": 3937,
      "ረ": 3938,
      "沟": 3939,
      "翁": 3940,
      "권": 3941,
      "Ӥ": 3942,
      "흐": 3943,
      "르": 3944,
      "麒": 3945,
      "ṳ": 3946,
      "诗": 3947,
      "辛": 3948,
      "루": 3949,
      "卷": 3950,
      "招": 3951,
      "ℎ": 3952,
      "倻": 3953,
      "票": 3954,
      "标": 3955,
      "割": 3956,
      "齒": 3957,
      "齿": 3958,
      "駿": 3959,
      "軟": 3960,
      "切": 3961,
      "ไ": 3962,
      "쿠": 3963,
      "維": 3964,
      "편": 3965,
      "ὀ": 3966,
      "順": 3967,
      "壁": 3968,
      "Ⅱ": 3969,
      "Ꚃ": 3970,
      "ै": 3971,
      "琴": 3972,
      "두": 3973,
      "扉": 3974,
      "農": 3975,
      "农": 3976,
      "独": 3977,
      "汕": 3978,
      "ײ": 3979,
      "͘": 3980,
      "操": 3981,
      "ʝ": 3982,
      "申": 3983,
      "壮": 3984,
      "悟": 3985,
      "Ź": 3986,
      "Փ": 3987,
      "粉": 3988,
      "飾": 3989,
      "凱": 3990,
      "頰": 3991,
      "颊": 3992,
      "頬": 3993,
      "舌": 3994,
      "呂": 3995,
      "鼎": 3996,
      "過": 3997,
      "環": 3998,
      "✓": 3999,
      "ᠷ": 4000,
      "ϛ": 4001,
      "桂": 4002,
      "℃": 4003,
      "黑": 4004,
      "ɢ": 4005,
      "좌": 4006,
      "腸": 4007,
      "肠": 4008,
      "Ἴ": 4009,
      "ɫ": 4010,
      "厕": 4011,
      "치": 4012,
      "咖": 4013,
      "勒": 4014,
      "弩": 4015,
      "准": 4016,
      "밤": 4017,
      "侗": 4018,
      "麗": 4019,
      "潤": 4020,
      "發": 4021,
      "머": 4022,
      "雅": 4023,
      "淸": 4024,
      "几": 4025,
      "总": 4026,
      "蒙": 4027,
      "Ṭ": 4028,
      "통": 4029,
      "胜": 4030,
      "Җ": 4031,
      "執": 4032,
      "난": 4033,
      "河": 4034,
      "边": 4035,
      "♭": 4036,
      "爸": 4037,
      "付": 4038,
      "超": 4039,
      "旦": 4040,
      "岁": 4041,
      "歳": 4042,
      "莒": 4043,
      "ৃ": 4044,
      "墾": 4045,
      "號": 4046,
      "经": 4047,
      "杉": 4048,
      "獨": 4049,
      "荣": 4050,
      "竟": 4051,
      "？": 4052,
      "체": 4053,
      "탐": 4054,
      "험": 4055,
      "ሁ": 4056,
      "ድ": 4057,
      "ዊ": 4058,
      "卵": 4059,
      "‡": 4060,
      "識": 4061,
      "孟": 4062,
      "憲": 4063,
      "객": 4064,
      "ў": 4065,
      "봐": 4066,
      "む": 4067,
      "課": 4068,
      "课": 4069,
      "ﺫ": 4070,
      "ठ": 4071,
      "초": 4072,
      "ѕ": 4073,
      "讓": 4074,
      "让": 4075,
      "叔": 4076,
      "帶": 4077,
      "모": 4078,
      "ቃ": 4079,
      "የ": 4080,
      "粤": 4081,
      "엄": 4082,
      "磐": 4083,
      "杰": 4084,
      "壬": 4085,
      "ɤ": 4086,
      "ὲ": 4087,
      "ヘ": 4088,
      "裏": 4089,
      "필": 4090,
      "օ": 4091,
      "舒": 4092,
      "ŵ": 4093,
      "ぼ": 4094,
      "ἵ": 4095,
      "晚": 4096,
      "昴": 4097,
      "누": 4098,
      "봉": 4099,
      "ﻉ": 4100,
      "ㄷ": 4101,
      "쾌": 4102,
      "커": 4103,
      "磊": 4104,
      "意": 4105,
      "Մ": 4106,
      "ջ": 4107,
      "腾": 4108,
      "ɵ": 4109,
      "ိ": 4110,
      "ဂ": 4111,
      "ၤ": 4112,
      "몰": 4113,
      "固": 4114,
      "품": 4115,
      "써": 4116,
      "晉": 4117,
      "̪": 4118,
      "骨": 4119,
      "還": 4120,
      "ழ": 4121,
      "˒": 4122,
      "象": 4123,
      "솔": 4124,
      "탁": 4125,
      "ँ": 4126,
      "็": 4127,
      "ꜫ": 4128,
      "风": 4129,
      "韦": 4130,
      "极": 4131,
      "叩": 4132,
      "盟": 4133,
      "竜": 4134,
      "उ": 4135,
      "새": 4136,
      "벽": 4137,
      "选": 4138,
      "姓": 4139,
      "伟": 4140,
      "袖": 4141,
      "͍": 4142,
      "ஈ": 4143,
      "ஷ": 4144,
      "홉": 4145,
      "際": 4146,
      "动": 4147,
      "卿": 4148,
      "尘": 4149,
      "榮": 4150,
      "₁": 4151,
      "降": 4152,
      "徽": 4153,
      "聟": 4154,
      "媒": 4155,
      "𐌟": 4156,
      "慣": 4157,
      "惯": 4158,
      "桃": 4159,
      "肃": 4160,
      "粛": 4161,
      "ڭ": 4162,
      "灯": 4163,
      "实": 4164,
      "ܩ": 4165,
      "綠": 4166,
      "绿": 4167,
      "緑": 4168,
      "Ů": 4169,
      "嫌": 4170,
      "当": 4171,
      "밖": 4172,
      "充": 4173,
      "ﻩ": 4174,
      "싸": 4175,
      "滌": 4176,
      "₨": 4177,
      "픔": 4178,
      "ผ": 4179,
      "ซ": 4180,
      "宅": 4181,
      "腦": 4182,
      "脑": 4183,
      "霸": 4184,
      "ṓ": 4185,
      "闫": 4186,
      "헌": 4187,
      "隅": 4188,
      "ǰ": 4189,
      "ᨍ": 4190,
      "楓": 4191,
      "넬": 4192,
      "𐊮": 4193,
      "⟧": 4194,
      "ङ": 4195,
      "ѵ": 4196,
      "勃": 4197,
      "♆": 4198,
      "祉": 4199,
      "ぅ": 4200,
      "渋": 4201,
      "̺": 4202,
      "ҷ": 4203,
      "鳥": 4204,
      "철": 4205,
      "刷": 4206,
      "𐊬": 4207,
      "곱": 4208,
      "荷": 4209,
      "Թ": 4210,
      "蒸": 4211,
      "強": 4212,
      "ҕ": 4213,
      "紋": 4214,
      "蓬": 4215,
      "ᮨ": 4216,
      "ᮥ": 4217,
      "ᮞ": 4218,
      "ḱ": 4219,
      "ピ": 4220,
      "乘": 4221,
      "貓": 4222,
      "欣": 4223,
      "尧": 4224,
      "板": 4225,
      "ষ": 4226,
      "幼": 4227,
      "負": 4228,
      "炮": 4229,
      "丰": 4230,
      "怎": 4231,
      "么": 4232,
      "禁": 4233,
      "ⴓ": 4234,
      "週": 4235,
      "横": 4236,
      "値": 4237,
      "휴": 4238,
      "돈": 4239,
      "材": 4240,
      "祈": 4241,
      "爭": 4242,
      "联": 4243,
      "赛": 4244,
      "筒": 4245,
      "Ě": 4246,
      "締": 4247,
      "Ј": 4248,
      "攻": 4249,
      "勢": 4250,
      "ﺩ": 4251,
      "仏": 4252,
      "ἱ": 4253,
      "ﺥ": 4254,
      "移": 4255,
      "˧": 4256,
      "曾": 4257,
      "驊": 4258,
      "拔": 4259,
      "뮤": 4260,
      "说": 4261,
      "澎": 4262,
      "個": 4263,
      "稅": 4264,
      "Ř": 4265,
      "": 4266,
      "ᵝ": 4267,
      "⇌": 4268,
      "Ă": 4269,
      "浪": 4270,
      "ٮ": 4271,
      "慧": 4272,
      "昨": 4273,
      "달": 4274,
      "슴": 4275,
      "엔": 4276,
      "崁": 4277,
      "略": 4278,
      "径": 4279,
      "靚": 4280,
      "拓": 4281,
      "廢": 4282,
      "疆": 4283,
      "胃": 4284,
      "ﺒ": 4285,
      "ﺢ": 4286,
      "佳": 4287,
      "烨": 4288,
      "韬": 4289,
      "揭": 4290,
      "짚": 4291,
      "洲": 4292,
      "庇": 4293,
      "騎": 4294,
      "찌": 4295,
      "릿": 4296,
      "破": 4297,
      "竪": 4298,
      "錫": 4299,
      "円": 4300,
      "脱": 4301,
      "練": 4302,
      "ﺙ": 4303,
      "밝": 4304,
      "遥": 4305,
      "ণ": 4306,
      "Ѱ": 4307,
      "₦": 4308,
      "亂": 4309,
      "乱": 4310,
      "缘": 4311,
      "烈": 4312,
      "閼": 4313,
      "医": 4314,
      "巖": 4315,
      "잡": 4316,
      "冊": 4317,
      "８": 4318,
      "ခ": 4319,
      "ŕ": 4320,
      "視": 4321,
      "副": 4322,
      "橫": 4323,
      "櫻": 4324,
      "樱": 4325,
      "ʈ": 4326,
      "馮": 4327,
      "벌": 4328,
      "鵩": 4329,
      "賦": 4330,
      "왔": 4331,
      "𐊭": 4332,
      "庆": 4333,
      "ホ": 4334,
      "单": 4335,
      "単": 4336,
      "池": 4337,
      "쿤": 4338,
      "構": 4339,
      "构": 4340,
      "捍": 4341,
      "彈": 4342,
      "庫": 4343,
      "讀": 4344,
      "读": 4345,
      "読": 4346,
      "灰": 4347,
      "哀": 4348,
      "感": 4349,
      "ݢ": 4350,
      "ự": 4351,
      "測": 4352,
      "测": 4353,
      "論": 4354,
      "翻": 4355,
      "往": 4356,
      "种": 4357,
      "ﻛ": 4358,
      "ﺎ": 4359,
      "衡": 4360,
      "陆": 4361,
      "穎": 4362,
      "魚": 4363,
      "鱼": 4364,
      "뱅": 4365,
      "拼": 4366,
      "飲": 4367,
      "饮": 4368,
      "宰": 4369,
      "丞": 4370,
      "譬": 4371,
      "ӥ": 4372,
      "̽": 4373,
      "汇": 4374,
      "圣": 4375,
      "兹": 4376,
      "護": 4377,
      "护": 4378,
      "盧": 4379,
      "핑": 4380,
      "澳": 4381,
      "螺": 4382,
      "旋": 4383,
      "抱": 4384,
      "賃": 4385,
      "赁": 4386,
      "ㇱ": 4387,
      "燒": 4388,
      "烧": 4389,
      "ӡ": 4390,
      "ܥ": 4391,
      "趙": 4392,
      "골": 4393,
      "抹": 4394,
      "Ҡ": 4395,
      "臻": 4396,
      "熟": 4397,
      "頼": 4398,
      "∫": 4399,
      "浮": 4400,
      "鉢": 4401,
      "姫": 4402,
      "것": 4403,
      "Ө": 4404,
      "辺": 4405,
      "ኢ": 4406,
      "ዮ": 4407,
      "ጵ": 4408,
      "ያ": 4409,
      "營": 4410,
      "蘭": 4411,
      "": 4412,
      "謡": 4413,
      "嘘": 4414,
      "ね": 4415,
      "坂": 4416,
      "ீ": 4417,
      "镜": 4418,
      "Ἑ": 4419,
      "웃": 4420,
      "樟": 4421,
      "耍": 4422,
      "摄": 4423,
      "赏": 4424,
      "懋": 4425,
      "촛": 4426,
      "経": 4427,
      "鵬": 4428,
      "₣": 4429,
      "奉": 4430,
      "崇": 4431,
      "闲": 4432,
      "額": 4433,
      "拢": 4434,
      "𒈪": 4435,
      "𒉡": 4436,
      "亨": 4437,
      "례": 4438,
      "惠": 4439,
      "卑": 4440,
      "怜": 4441,
      "Ӌ": 4442,
      "视": 4443,
      "ﺼ": 4444,
      "ﻞ": 4445,
      "昂": 4446,
      "溪": 4447,
      "粍": 4448,
      "砲": 4449,
      "蘿": 4450,
      "欢": 4451,
      "迎": 4452,
      "网": 4453,
      "站": 4454,
      "↔": 4455,
      "솜": 4456,
      "탕": 4457,
      "않": 4458,
      "ﺓ": 4459,
      "喝": 4460,
      "峪": 4461,
      "屈": 4462,
      "辱": 4463,
      "験": 4464,
      "갈": 4465,
      "接": 4466,
      "謀": 4467,
      "罠": 4468,
      "𐌇": 4469,
      "势": 4470,
      "＃": 4471,
      "冨": 4472,
      "笠": 4473,
      "雍": 4474,
      "状": 4475,
      "愴": 4476,
      "模": 4477,
      "鶯": 4478,
      "囀": 4479,
      "̧": 4480,
      "汜": 4481,
      "쥐": 4482,
      "ใ": 4483,
      "胤": 4484,
      "馳": 4485,
      "〔": 4486,
      "〕": 4487,
      "莉": 4488,
      "ӣ": 4489,
      "帳": 4490,
      "Ⴥ": 4491,
      "괜": 4492,
      "찮": 4493,
      "褒": 4494,
      "ჟ": 4495,
      "綾": 4496,
      "째": 4497,
      "묘": 4498,
      "ɐ": 4499,
      "洸": 4500,
      "赖": 4501,
      "数": 4502,
      "届": 4503,
      "负": 4504,
      "ḑ": 4505,
      "Џ": 4506,
      "証": 4507,
      "吕": 4508,
      "剋": 4509,
      "＋": 4510,
      "璋": 4511,
      "油": 4512,
      "貸": 4513,
      "贷": 4514,
      "掌": 4515,
      "̐": 4516,
      "완": 4517,
      "勁": 4518,
      "닛": 4519,
      "ஆ": 4520,
      "Ǧ": 4521,
      "斛": 4522,
      "걸": 4523,
      "ķ": 4524,
      "忌": 4525,
      "泪": 4526,
      "產": 4527,
      "产": 4528,
      "産": 4529,
      "軫": 4530,
      "Ժ": 4531,
      "锟": 4532,
      "寒": 4533,
      "↵": 4534,
      "跡": 4535,
      "특": 4536,
      "ﻇ": 4537,
      "ភ": 4538,
      "祕": 4539,
      "窗": 4540,
      "窓": 4541,
      "撒": 4542,
      "格": 4543,
      "娄": 4544,
      "沁": 4545,
      "妍": 4546,
      "悩": 4547,
      "頑": 4548,
      "嬴": 4549,
      "ꜩ": 4550,
      "𐰴": 4551,
      "𐰍": 4552,
      "𐰣": 4553,
      "𐭐": 4554,
      "𐭇": 4555,
      "슈": 4556,
      "틴": 4557,
      "ﺗ": 4558,
      "ﺂ": 4559,
      "ﻔ": 4560,
      "係": 4561,
      "阮": 4562,
      "콩": 4563,
      "璨": 4564,
      "▪": 4565,
      "鉤": 4566,
      "ぺ": 4567,
      "兆": 4568,
      "Ὡ": 4569,
      "尻": 4570,
      "优": 4571,
      "𐌃": 4572,
      "奋": 4573,
      "Ⅰ": 4574,
      "ည": 4575,
      "𐊛": 4576,
      "擇": 4577,
      "洙": 4578,
      "捏": 4579,
      "倫": 4580,
      "彦": 4581,
      "갓": 4582,
      "ឆ": 4583,
      "直": 4584,
      "٥": 4585,
      "饭": 4586,
      "혈": 4587,
      "책": 4588,
      "桶": 4589,
      "督": 4590,
      "劈": 4591,
      "掛": 4592,
      "樣": 4593,
      "样": 4594,
      "銖": 4595,
      "판": 4596,
      "验": 4597,
      "琢": 4598,
      "Ġ": 4599,
      "으": 4600,
      "ڨ": 4601,
      "笑": 4602,
      "ﺣ": 4603,
      "ﺴ": 4604,
      "ﻦ": 4605,
      "ἦ": 4606,
      "繩": 4607,
      "绳": 4608,
      "˩": 4609,
      "며": 4610,
      "느": 4611,
      "背": 4612,
      "舟": 4613,
      "尺": 4614,
      "☰": 4615,
      "徵": 4616,
      "喔": 4617,
      "被": 4618,
      "寵": 4619,
      "偕": 4620,
      "焉": 4621,
      "ỹ": 4622,
      "坪": 4623,
      "轉": 4624,
      "ះ": 4625,
      "": 4626,
      "燏": 4627,
      "對": 4628,
      "佉": 4629,
      "鄭": 4630,
      "ﻻ": 4631,
      "见": 4632,
      "範": 4633,
      "济": 4634,
      "済": 4635,
      "셜": 4636,
      "戎": 4637,
      "⅔": 4638,
      "寎": 4639,
      "잠": 4640,
      "碗": 4641,
      "Ξ": 4642,
      "⋌": 4643,
      "֮": 4644,
      "𐌣": 4645,
      "返": 4646,
      "ဘ": 4647,
      "ီ": 4648,
      "玻": 4649,
      "璃": 4650,
      "質": 4651,
      "质": 4652,
      "暁": 4653,
      "染": 4654,
      "削": 4655,
      "券": 4656,
      "晶": 4657,
      "፡": 4658,
      "均": 4659,
      "ϲ": 4660,
      "椎": 4661,
      "Ⴉ": 4662,
      "Ⴚ": 4663,
      "调": 4664,
      "猶": 4665,
      "Õ": 4666,
      "ን": 4667,
      "膺": 4668,
      "律": 4669,
      "譽": 4670,
      "ສ": 4671,
      "ຸ": 4672,
      "ັ": 4673,
      "蟄": 4674,
      "殉": 4675,
      "变": 4676,
      "似": 4677,
      "ோ": 4678,
      "俠": 4679,
      "輕": 4680,
      "轻": 4681,
      "": 4682,
      "針": 4683,
      "针": 4684,
      "藩": 4685,
      "遲": 4686,
      "哉": 4687,
      "捨": 4688,
      "這": 4689,
      "ゐ": 4690,
      "艾": 4691,
      "钟": 4692,
      "露": 4693,
      "災": 4694,
      "続": 4695,
      "庵": 4696,
      "浒": 4697,
      "阴": 4698,
      "悔": 4699,
      "睛": 4700,
      "宛": 4701,
      "ఊ": 4702,
      "ి": 4703,
      "阪": 4704,
      "縮": 4705,
      "缩": 4706,
      "격": 4707,
      "暖": 4708,
      "豫": 4709,
      "ﻮ": 4710,
      "ٵ": 4711,
      "ﻟ": 4712,
      "ὁ": 4713,
      "닥": 4714,
      "供": 4715,
      "融": 4716,
      "謙": 4717,
      "Ѵ": 4718,
      "贊": 4719,
      "賛": 4720,
      "絮": 4721,
      "細": 4722,
      "薔": 4723,
      "薇": 4724,
      "磯": 4725,
      "寮": 4726,
      "ѱ": 4727,
      "𐊨": 4728,
      "约": 4729,
      "仰": 4730,
      "స": 4731,
      "య": 4732,
      "查": 4733,
      "报": 4734,
      "告": 4735,
      "丽": 4736,
      "豢": 4737,
      "繋": 4738,
      "淺": 4739,
      "ൻ": 4740,
      "Ⴙ": 4741,
      "賴": 4742,
      "退": 4743,
      "싱": 4744,
      "글": 4745,
      "బ": 4746,
      "襖": 4747,
      "逆": 4748,
      "鄧": 4749,
      "皿": 4750,
      "隋": 4751,
      "泡": 4752,
      "沫": 4753,
      "卓": 4754,
      "ぜ": 4755,
      "丼": 4756,
      "嘗": 4757,
      "讚": 4758,
      "胎": 4759,
      "穌": 4760,
      "粹": 4761,
      "庙": 4762,
      "ᐊ": 4763,
      "ᑉ": 4764,
      "ᐸ": 4765,
      "ᑑ": 4766,
      "ᕐ": 4767,
      "ᔪ": 4768,
      "ᖅ": 4769,
      "ǂ": 4770,
      "氹": 4771,
      "১": 4772,
      "梶": 4773,
      "宠": 4774,
      "麵": 4775,
      "麺": 4776,
      "暠": 4777,
      "淡": 4778,
      "紫": 4779,
      "垣": 4780,
      "៎": 4781,
      "ჭ": 4782,
      "": 4783,
      "弼": 4784,
      "凉": 4785,
      "杭": 4786,
      "ヶ": 4787,
      "钦": 4788,
      "ۋ": 4789,
      "鹰": 4790,
      "있": 4791,
      "间": 4792,
      "例": 4793,
      "帅": 4794,
      "甘": 4795,
      "큰": 4796,
      "ֲ": 4797,
      "帆": 4798,
      "击": 4799,
      "ᮜ": 4800,
      "ᮁ": 4801,
      "ᮃ": 4802,
      "吸": 4803,
      "线": 4804,
      "位": 4805,
      "皋": 4806,
      "ẽ": 4807,
      "ժ": 4808,
      "샤": 4809,
      "쥔": 4810,
      "Ԛ": 4811,
      "Ń": 4812,
      "런": 4813,
      "煮": 4814,
      "婚": 4815,
      "姻": 4816,
      "崔": 4817,
      "寔": 4818,
      "飡": 4819,
      "ԥ": 4820,
      "討": 4821,
      "讨": 4822,
      "编": 4823,
      "評": 4824,
      "评": 4825,
      "蒋": 4826,
      "׀": 4827,
      "킨": 4828,
      "椵": 4829,
      "岑": 4830,
      "막": 4831,
      "濑": 4832,
      "鸟": 4833,
      "Ῥ": 4834,
      "께": 4835,
      "˨": 4836,
      "巾": 4837,
      "隼": 4838,
      "打": 4839,
      "̩": 4840,
      "ൊ": 4841,
      "념": 4842,
      "喪": 4843,
      "Ὑ": 4844,
      "⁼": 4845,
      "▢": 4846,
      "档": 4847,
      "ŝ": 4848,
      "𐊠": 4849,
      "ᬢ": 4850,
      "ᬦ": 4851,
      "٤": 4852,
      "儆": 4853,
      "歐": 4854,
      "貧": 4855,
      "贫": 4856,
      "ϑ": 4857,
      "變": 4858,
      "疾": 4859,
      "ぬ": 4860,
      "Ï": 4861,
      "垭": 4862,
      "깨": 4863,
      "辟": 4864,
      "怿": 4865,
      "涵": 4866,
      "֤": 4867,
      "爽": 4868,
      "诺": 4869,
      "喬": 4870,
      "膽": 4871,
      "빅": 4872,
      "ូ": 4873,
      "ᮙ": 4874,
      "ᮔ": 4875,
      "ṑ": 4876,
      "觀": 4877,
      "观": 4878,
      "义": 4879,
      "ট": 4880,
      "플": 4881,
      "랜": 4882,
      "맨": 4883,
      "吊": 4884,
      "獅": 4885,
      "鎭": 4886,
      "Û": 4887,
      "▽": 4888,
      "›": 4889,
      "ẩ": 4890,
      "ನ": 4891,
      "ಗ": 4892,
      "桴": 4893,
      "莲": 4894,
      "愁": 4895,
      "‬": 4896,
      "Ґ": 4897,
      "絆": 4898,
      "曉": 4899,
      "登": 4900,
      "瓜": 4901,
      "引": 4902,
      "即": 4903,
      "₂": 4904,
      "﻿": 4905,
      "Ọ": 4906,
      "腹": 4907,
      "碰": 4908,
      "劍": 4909,
      "尖": 4910,
      "圓": 4911,
      "헹": 4912,
      "먼": 4913,
      "ぞ": 4914,
      "ਮ": 4915,
      "练": 4916,
      "곳": 4917,
      "ᬇ": 4918,
      "ᬕ": 4919,
      "ᬾ": 4920,
      "ᬃ": 4921,
      "ᬫ": 4922,
      "ᬅ": 4923,
      "絲": 4924,
      "丝": 4925,
      "糸": 4926,
      "痞": 4927,
      "邦": 4928,
      "瓛": 4929,
      "艇": 4930,
      "𐤊": 4931,
      "𐤓": 4932,
      "𐤀": 4933,
      "힘": 4934,
      "誌": 4935,
      "持": 4936,
      "ϝ": 4937,
      "Ő": 4938,
      "錯": 4939,
      "ਚ": 4940,
      "鼻": 4941,
      "哦": 4942,
      "‧": 4943,
      "甚": 4944,
      "麼": 4945,
      "ﺽ": 4946,
      "؞": 4947,
      "담": 4948,
      "舵": 4949,
      "複": 4950,
      "进": 4951,
      "＆": 4952,
      "稿": 4953,
      "Ἅ": 4954,
      "些": 4955,
      "岳": 4956,
      "霖": 4957,
      "筋": 4958,
      "陛": 4959,
      "①": 4960,
      "ژ": 4961,
      "ზ": 4962,
      "蠶": 4963,
      "蚕": 4964,
      "瘋": 4965,
      "棍": 4966,
      "听": 4967,
      "泼": 4968,
      "机": 4969,
      "甯": 4970,
      "璧": 4971,
      "ʢ": 4972,
      "莙": 4973,
      "ﻝ": 4974,
      "추": 4975,
      "ὥ": 4976,
      "刹": 4977,
      "欲": 4978,
      "暴": 4979,
      "营": 4980,
      "ᠳ": 4981,
      "细": 4982,
      "ဗ": 4983,
      "Ť": 4984,
      "본": 4985,
      "樓": 4986,
      "ɻ": 4987,
      "⊆": 4988,
      "虜": 4989,
      "Ἁ": 4990,
      "젊": 4991,
      "날": 4992,
      "储": 4993,
      "旭": 4994,
      "엽": 4995,
      "俺": 4996,
      "宙": 4997,
      "ﻍ": 4998,
      "佑": 4999,
      "晓": 5000,
      "☧": 5001,
      "ꜭ": 5002,
      "増": 5003,
      "ϕ": 5004,
      "蒨": 5005,
      "ವ": 5006,
      "್": 5007,
      "룽": 5008,
      "𐋁": 5009,
      "𐋀": 5010,
      "执": 5011,
      "虛": 5012,
      "ហ": 5013,
      "蚊": 5014,
      "槍": 5015,
      "ợ": 5016,
      "架": 5017,
      "费": 5018,
      "剖": 5019,
      "结": 5020,
      "虚": 5021,
      "噶": 5022,
      "¶": 5023,
      "ಸ": 5024,
      "ಿ": 5025,
      "懲": 5026,
      "ℝ": 5027,
      "郷": 5028,
      "挺": 5029,
      "𒇷": 5030,
      "𒂊": 5031,
      "賓": 5032,
      "頻": 5033,
      "誤": 5034,
      "误": 5035,
      "약": 5036,
      "带": 5037,
      "帯": 5038,
      "ﻯ": 5039,
      "∈": 5040,
      "◌": 5041,
      "禹": 5042,
      "බ": 5043,
      "ϴ": 5044,
      "❤": 5045,
      "琪": 5046,
      "翕": 5047,
      "稱": 5048,
      "凝": 5049,
      "傷": 5050,
      "伤": 5051,
      "惑": 5052,
      "耕": 5053,
      "頤": 5054,
      "ᨂ": 5055,
      "肺": 5056,
      "ጉ": 5057,
      "彥": 5058,
      "历": 5059,
      "页": 5060,
      "于": 5061,
      "尙": 5062,
      "👍": 5063,
      "很": 5064,
      "Ἠ": 5065,
      "戶": 5066,
      "銳": 5067,
      "锐": 5068,
      "鋭": 5069,
      "𐊼": 5070,
      "𐊽": 5071,
      "̤": 5072,
      "陬": 5073,
      "٠": 5074,
      "٣": 5075,
      "٨": 5076,
      "程": 5077,
      "ﺯ": 5078,
      "墙": 5079,
      "鲲": 5080,
      "覆": 5081,
      "怒": 5082,
      "幕": 5083,
      "Ҹ": 5084,
      "髪": 5085,
      "៊": 5086,
      "斷": 5087,
      "屆": 5088,
      "鄴": 5089,
      "胸": 5090,
      "ἳ": 5091,
      "浜": 5092,
      "ㅅ": 5093,
      "ʡ": 5094,
      "绕": 5095,
      "ὗ": 5096,
      "拜": 5097,
      "拝": 5098,
      "♧": 5099,
      "局": 5100,
      "ਨ": 5101,
      "ੇ": 5102,
      "ਵ": 5103,
      "炸": 5104,
      "炎": 5105,
      "顕": 5106,
      "ẹ": 5107,
      "ወ": 5108,
      "🚀": 5109,
      "润": 5110,
      "Ɛ": 5111,
      "⋉": 5112,
      "ڪ": 5113,
      "鎖": 5114,
      "鴻": 5115,
      "倪": 5116,
      "ẵ": 5117,
      "ဝ": 5118,
      "ꩻ": 5119,
      "ဟ": 5120,
      "ပ": 5121,
      "ံ": 5122,
      "⋯": 5123,
      "梨": 5124,
      "棒": 5125,
      "犨": 5126,
      "枝": 5127,
      "ꦾ": 5128,
      "𐋎": 5129,
      "𐊦": 5130,
      "莊": 5131,
      "荘": 5132,
      "堰": 5133,
      "Ք": 5134,
      "Զ": 5135,
      "免": 5136,
      "闸": 5137,
      "賚": 5138,
      "韮": 5139,
      "俳": 5140,
      "萍": 5141,
      "聂": 5142,
      "漓": 5143,
      "ʧ": 5144,
      "Ԟ": 5145,
      "ѝ": 5146,
      "泥": 5147,
      "扬": 5148,
      "禛": 5149,
      "ꥆ": 5150,
      "ꥋ": 5151,
      "ꤱ": 5152,
      "ꥐ": 5153,
      "ঢ": 5154,
      "ፋ": 5155,
      "ሪ": 5156,
      "燕": 5157,
      "ਏ": 5158,
      "਼": 5159,
      "쁘": 5160,
      "잖": 5161,
      "差": 5162,
      "勉": 5163,
      "꾀": 5164,
      "꼬": 5165,
      "җ": 5166,
      "潜": 5167,
      "改": 5168,
      "殘": 5169,
      "残": 5170,
      "ἷ": 5171,
      "盛": 5172,
      "增": 5173,
      "Ἐ": 5174,
      "滅": 5175,
      "Ь": 5176,
      "競": 5177,
      "竞": 5178,
      "樑": 5179,
      "∇": 5180,
      "墜": 5181,
      "သ": 5182,
      "脇": 5183,
      "慎": 5184,
      "섯": 5185,
      "３": 5186,
      "⇔": 5187,
      "燦": 5188,
      "齋": 5189,
      "斋": 5190,
      "拡": 5191,
      "輝": 5192,
      "串": 5193,
      "擴": 5194,
      "扩": 5195,
      "閣": 5196,
      "阁": 5197,
      "算": 5198,
      "●": 5199,
      "凌": 5200,
      "箫": 5201,
      "깊": 5202,
      "疏": 5203,
      "져": 5204,
      "歧": 5205,
      "暫": 5206,
      "翌": 5207,
      "閭": 5208,
      "逸": 5209,
      "蘆": 5210,
      "ֽ": 5211,
      "֣": 5212,
      "億": 5213,
      "亿": 5214,
      "閑": 5215,
      "耳": 5216,
      "丕": 5217,
      "∝": 5218,
      "ថ": 5219,
      "៉": 5220,
      "𐊫": 5221,
      "괴": 5222,
      "陂": 5223,
      "哥": 5224,
      "ཨ": 5225,
      "ེ": 5226,
      "མ": 5227,
      "ཚ": 5228,
      "ི": 5229,
      "▷": 5230,
      "犁": 5231,
      "攘": 5232,
      "灾": 5233,
      "豐": 5234,
      "豊": 5235,
      "總": 5236,
      "ས": 5237,
      "ན": 5238,
      "པ": 5239,
      "ོ": 5240,
      "ཆ": 5241,
      "努": 5242,
      "廊": 5243,
      "ʐ": 5244,
      "證": 5245,
      "证": 5246,
      "檢": 5247,
      "检": 5248,
      "検": 5249,
      "戌": 5250,
      "˔": 5251,
      "ಐ": 5252,
      "ಶ": 5253,
      "ಯ": 5254,
      "汲": 5255,
      "₃": 5256,
      "狩": 5257,
      "엘": 5258,
      "諶": 5259,
      "흉": 5260,
      "착": 5261,
      "伍": 5262,
      "宪": 5263,
      "ಮ": 5264,
      "ಣ": 5265,
      "葫": 5266,
      "芦": 5267,
      "侨": 5268,
      "俵": 5269,
      "닝": 5270,
      "倮": 5271,
      "抜": 5272,
      "財": 5273,
      "财": 5274,
      "描": 5275,
      "没": 5276,
      "靠": 5277,
      "臟": 5278,
      "脏": 5279,
      "臓": 5280,
      "ۆ": 5281,
      "濱": 5282,
      "դ": 5283,
      "鶏": 5284,
      "𐊷": 5285,
      "围": 5286,
      "囲": 5287,
      "淮": 5288,
      "粿": 5289,
      "ന": 5290,
      "職": 5291,
      "职": 5292,
      "↦": 5293,
      "隐": 5294,
      "隠": 5295,
      "奚": 5296,
      "序": 5297,
      "ᮀ": 5298,
      "ꦊ": 5299,
      "續": 5300,
      "浴": 5301,
      "擬": 5302,
      "ㇲ": 5303,
      "ԟ": 5304,
      "♦": 5305,
      "虞": 5306,
      "𐊤": 5307,
      "𐋈": 5308,
      "𐋐": 5309,
      "与": 5310,
      "": 5311,
      "聡": 5312,
      "寛": 5313,
      "双": 5314,
      "臂": 5315,
      "♋": 5316,
      "賣": 5317,
      "卖": 5318,
      "ֻ": 5319,
      "መ": 5320,
      "ሃ": 5321,
      "အ": 5322,
      "判": 5323,
      "计": 5324,
      "𐊡": 5325,
      "𐋊": 5326,
      "𐋋": 5327,
      "𐋌": 5328,
      "𐋍": 5329,
      "읕": 5330,
      "ႏ": 5331,
      "ဖ": 5332,
      "̠": 5333,
      "腰": 5334,
      "없": 5335,
      "ﺕ": 5336,
      "ռ": 5337,
      "롱": 5338,
      "넣": 5339,
      "絹": 5340,
      "绢": 5341,
      "伦": 5342,
      "斉": 5343,
      "資": 5344,
      "앤": 5345,
      "幽": 5346,
      "농": 5347,
      "쇼": 5348,
      "ở": 5349,
      "貨": 5350,
      "弄": 5351,
      "ᮄ": 5352,
      "嬢": 5353,
      "込": 5354,
      "Ň": 5355,
      "帐": 5356,
      "瀚": 5357,
      "恬": 5358,
      "已": 5359,
      "鈴": 5360,
      "ආ": 5361,
      "ණ": 5362,
      "ව": 5363,
      "꿈": 5364,
      "峡": 5365,
      "憎": 5366,
      "畳": 5367,
      "魯": 5368,
      "働": 5369,
      "懂": 5370,
      "嫪": 5371,
      "毐": 5372,
      "膳": 5373,
      "ᮌ": 5374,
      "ᮍ": 5375,
      "獻": 5376,
      "谈": 5377,
      "陶": 5378,
      "孩": 5379,
      "棘": 5380,
      "胁": 5381,
      "刚": 5382,
      "ᠪ": 5383,
      "ᠤ": 5384,
      "ᠢ": 5385,
      "邈": 5386,
      "祭": 5387,
      "ﺵ": 5388,
      "竖": 5389,
      "刁": 5390,
      "절": 5391,
      "妖": 5392,
      "△": 5393,
      "椿": 5394,
      "績": 5395,
      "绩": 5396,
      "Ț": 5397,
      "끄": 5398,
      "尾": 5399,
      "策": 5400,
      "緯": 5401,
      "纬": 5402,
      "Ḍ": 5403,
      "敗": 5404,
      "败": 5405,
      "른": 5406,
      "昺": 5407,
      "霹": 5408,
      "雳": 5409,
      "썸": 5410,
      "塀": 5411,
      "仡": 5412,
      "ډ": 5413,
      "洗": 5414,
      "Ŕ": 5415,
      "⅜": 5416,
      "灶": 5417,
      "祁": 5418,
      "聪": 5419,
      "胧": 5420,
      "叉": 5421,
      "ⴍ": 5422,
      "ⴣ": 5423,
      "蕪": 5424,
      "ȏ": 5425,
      "빌": 5426,
      "坞": 5427,
      "폰": 5428,
      "鹛": 5429,
      "银": 5430,
      "兼": 5431,
      "慰": 5432,
      "谢": 5433,
      "絕": 5434,
      "绝": 5435,
      "凛": 5436,
      "꺼": 5437,
      "Ӧ": 5438,
      "ӧ": 5439,
      "衫": 5440,
      "ܟ": 5441,
      "派": 5442,
      "剪": 5443,
      "ﻅ": 5444,
      "慨": 5445,
      "馀": 5446,
      "設": 5447,
      "设": 5448,
      "ĝ": 5449,
      "员": 5450,
      "侮": 5451,
      "纸": 5452,
      "难": 5453,
      "≪": 5454,
      "禍": 5455,
      "뢰": 5456,
      "⅛": 5457,
      "披": 5458,
      "薩": 5459,
      "驛": 5460,
      "驿": 5461,
      "珉": 5462,
      "馨": 5463,
      "沿": 5464,
      "칭": 5465,
      "巨": 5466,
      "满": 5467,
      "袁": 5468,
      "玥": 5469,
      "믿": 5470,
      "桑": 5471,
      "兰": 5472,
      "ꦑ": 5473,
      "ਓ": 5474,
      "ਲ": 5475,
      "੍": 5476,
      "𐊯": 5477,
      "낮": 5478,
      "ἢ": 5479,
      "ϡ": 5480,
      "ỏ": 5481,
      "懷": 5482,
      "跃": 5483,
      "升": 5484,
      "亢": 5485,
      "్": 5486,
      "硫": 5487,
      "阜": 5488,
      "매": 5489,
      "妇": 5490,
      "ᮦ": 5491,
      "ᮢ": 5492,
      "⊂": 5493,
      "꦳": 5494,
      "辯": 5495,
      "∂": 5496,
      "欄": 5497,
      "층": 5498,
      "擧": 5499,
      "举": 5500,
      "킬": 5501,
      "램": 5502,
      "麦": 5503,
      "勧": 5504,
      "涼": 5505,
      "飼": 5506,
      "饲": 5507,
      "慄": 5508,
      "弹": 5509,
      "柔": 5510,
      "覩": 5511,
      "杠": 5512,
      "룹": 5513,
      "ỵ": 5514,
      "沮": 5515,
      "蠻": 5516,
      "圆": 5517,
      "显": 5518,
      "缺": 5519,
      "欠": 5520,
      "蔣": 5521,
      "𐅝": 5522,
      "宥": 5523,
      "₫": 5524,
      "绥": 5525,
      "响": 5526,
      "貫": 5527,
      "ⵄ": 5528,
      "ⵣ": 5529,
      "ⵉ": 5530,
      "͜": 5531,
      "ၚ": 5532,
      "ရ": 5533,
      "ᶻ": 5534,
      "瀛": 5535,
      "牌": 5536,
      "臭": 5537,
      "貿": 5538,
      "贸": 5539,
      "滋": 5540,
      "ĳ": 5541,
      "墟": 5542,
      "Ϻ": 5543,
      "殷": 5544,
      "ఒ": 5545,
      "狀": 5546,
      "亦": 5547,
      "晦": 5548,
      "絢": 5549,
      "爛": 5550,
      "ဠ": 5551,
      "ါ": 5552,
      "ထ": 5553,
      "逼": 5554,
      "陷": 5555,
      "阱": 5556,
      "刺": 5557,
      "繡": 5558,
      "𐌌": 5559,
      "ඌ": 5560,
      "龄": 5561,
      "库": 5562,
      "ွ": 5563,
      "ˠ": 5564,
      "鑴": 5565,
      "팥": 5566,
      "否": 5567,
      "粄": 5568,
      "饶": 5569,
      "֪": 5570,
      "则": 5571,
      "외": 5572,
      "잘": 5573,
      "즙": 5574,
      "Ⴓ": 5575,
      "쇄": 5576,
      "an": 5577,
      "er": 5578,
      "▁t": 5579,
      "in": 5580,
      "en": 5581,
      "▁d": 5582,
      "ar": 5583,
      "at": 5584,
      "he": 5585,
      "▁s": 5586,
      "al": 5587,
      "on": 5588,
      "▁m": 5589,
      "as": 5590,
      "▁p": 5591,
      "▁b": 5592,
      "▁the": 5593,
      "es": 5594,
      "or": 5595,
      "is": 5596,
      "ed": 5597,
      "it": 5598,
      "un": 5599,
      "▁,": 5600,
      "ang": 5601,
      "▁a": 5602,
      "▁w": 5603,
      "▁o": 5604,
      "ah": 5605,
      "am": 5606,
      "el": 5607,
      "▁S": 5608,
      "ing": 5609,
      "em": 5610,
      "▁in": 5611,
      "▁.": 5612,
      "and": 5613,
      "▁k": 5614,
      "▁f": 5615,
      "▁c": 5616,
      "il": 5617,
      "ak": 5618,
      "ad": 5619,
      "▁of": 5620,
      "▁A": 5621,
      "▁P": 5622,
      "▁T": 5623,
      "ur": 5624,
      "us": 5625,
      "▁di": 5626,
      "ro": 5627,
      "▁h": 5628,
      "▁l": 5629,
      "▁M": 5630,
      "ic": 5631,
      "▁and": 5632,
      "et": 5633,
      "▁r": 5634,
      "▁B": 5635,
      "ut": 5636,
      "▁1": 5637,
      "▁to": 5638,
      "ion": 5639,
      "ik": 5640,
      "▁C": 5641,
      "ir": 5642,
      "▁se": 5643,
      "▁y": 5644,
      "eng": 5645,
      "ent": 5646,
      "▁I": 5647,
      "ol": 5648,
      "ul": 5649,
      "▁K": 5650,
      "▁D": 5651,
      "om": 5652,
      "id": 5653,
      "uk": 5654,
      "▁(": 5655,
      "ag": 5656,
      "ya": 5657,
      "▁dan": 5658,
      "im": 5659,
      "ec": 5660,
      "▁2": 5661,
      "▁yang": 5662,
      "um": 5663,
      "ap": 5664,
      "▁\"": 5665,
      "▁n": 5666,
      "ia": 5667,
      "▁R": 5668,
      "ers": 5669,
      "▁=": 5670,
      "le": 5671,
      "▁H": 5672,
      "▁th": 5673,
      "ot": 5674,
      "ac": 5675,
      "▁g": 5676,
      "ari": 5677,
      "▁L": 5678,
      "▁J": 5679,
      "kan": 5680,
      "▁N": 5681,
      "ep": 5682,
      "ay": 5683,
      "os": 5684,
      "▁men": 5685,
      "ai": 5686,
      "▁G": 5687,
      "eb": 5688,
      "▁@": 5689,
      "ter": 5690,
      "up": 5691,
      "▁F": 5692,
      "ig": 5693,
      "ada": 5694,
      "00": 5695,
      "▁ber": 5696,
      "▁The": 5697,
      "▁was": 5698,
      "ek": 5699,
      "ab": 5700,
      "▁19": 5701,
      "iv": 5702,
      "▁W": 5703,
      "tr": 5704,
      "▁on": 5705,
      "emb": 5706,
      "▁per": 5707,
      "ian": 5708,
      "ain": 5709,
      "ud": 5710,
      "▁as": 5711,
      "▁In": 5712,
      "▁'": 5713,
      "ly": 5714,
      "ara": 5715,
      "▁for": 5716,
      "re": 5717,
      "▁un": 5718,
      "▁at": 5719,
      "▁ad": 5720,
      "▁E": 5721,
      "▁@-": 5722,
      "▁@-@": 5723,
      "ow": 5724,
      "ug": 5725,
      "th": 5726,
      "▁ter": 5727,
      "▁dari": 5728,
      "▁e": 5729,
      "nya": 5730,
      "▁j": 5731,
      "ant": 5732,
      "ation": 5733,
      "ung": 5734,
      "ith": 5735,
      "▁seb": 5736,
      "▁wh": 5737,
      "▁O": 5738,
      "ch": 5739,
      "eg": 5740,
      "alah": 5741,
      "akan": 5742,
      "end": 5743,
      "od": 5744,
      "▁al": 5745,
      "ama": 5746,
      "▁U": 5747,
      "▁'s": 5748,
      "engan": 5749,
      "▁it": 5750,
      "▁pada": 5751,
      "▁with": 5752,
      "ist": 5753,
      "op": 5754,
      "▁st": 5755,
      "est": 5756,
      "st": 5757,
      "ver": 5758,
      "▁that": 5759,
      "aw": 5760,
      "▁ini": 5761,
      "art": 5762,
      "ip": 5763,
      "▁dengan": 5764,
      "ub": 5765,
      "asi": 5766,
      "alam": 5767,
      "ere": 5768,
      "▁meng": 5769,
      "if": 5770,
      "av": 5771,
      "▁by": 5772,
      "▁pro": 5773,
      "ies": 5774,
      "ce": 5775,
      "▁be": 5776,
      "ok": 5777,
      "▁)": 5778,
      "▁unt": 5779,
      "▁is": 5780,
      "▁20": 5781,
      "▁con": 5782,
      "▁an": 5783,
      "ew": 5784,
      "▁adalah": 5785,
      "▁v": 5786,
      "ong": 5787,
      "▁or": 5788,
      "▁untuk": 5789,
      "▁mer": 5790,
      "▁he": 5791,
      "▁mem": 5792,
      "rom": 5793,
      "ib": 5794,
      "ahun": 5795,
      "▁dalam": 5796,
      "▁200": 5797,
      "▁ar": 5798,
      "ess": 5799,
      "ard": 5800,
      "ect": 5801,
      "agai": 5802,
      "ert": 5803,
      "▁ke": 5804,
      "ill": 5805,
      "ran": 5806,
      "▁tahun": 5807,
      "unk": 5808,
      "ev": 5809,
      "atan": 5810,
      "uc": 5811,
      "a,": 5812,
      "og": 5813,
      "▁<": 5814,
      "▁201": 5815,
      "▁<unk": 5816,
      "▁<unk>": 5817,
      "▁from": 5818,
      "uh": 5819,
      "oun": 5820,
      "oc": 5821,
      "ov": 5822,
      "amp": 5823,
      "▁sebagai": 5824,
      "ial": 5825,
      "igh": 5826,
      "▁his": 5827,
      "▁com": 5828,
      "aj": 5829,
      "all": 5830,
      "▁Y": 5831,
      "▁V": 5832,
      "au": 5833,
      "ih": 5834,
      "ich": 5835,
      "adi": 5836,
      "▁sp": 5837,
      "ort": 5838,
      "▁St": 5839,
      "leh": 5840,
      "▁An": 5841,
      "ear": 5842,
      "▁3": 5843,
      "▁pr": 5844,
      "▁oleh": 5845,
      "ikan": 5846,
      "ast": 5847,
      "emp": 5848,
      "▁Ch": 5849,
      "int": 5850,
      "qu": 5851,
      "ore": 5852,
      "ate": 5853,
      "▁were": 5854,
      "aan": 5855,
      "ity": 5856,
      "▁dis": 5857,
      "our": 5858,
      "▁pl": 5859,
      "ef": 5860,
      "ell": 5861,
      "ri": 5862,
      "▁Al": 5863,
      "si": 5864,
      "any": 5865,
      "ob": 5866,
      "▁ex": 5867,
      "▁|": 5868,
      "ilm": 5869,
      "elah": 5870,
      "▁Ind": 5871,
      "ack": 5872,
      "ember": 5873,
      "ated": 5874,
      "out": 5875,
      "uar": 5876,
      "ive": 5877,
      "▁ch": 5878,
      "ebut": 5879,
      "▁pen": 5880,
      "ame": 5881,
      "▁menj": 5882,
      "▁sh": 5883,
      "per": 5884,
      "ugh": 5885,
      "anya": 5886,
      "mer": 5887,
      "ingg": 5888,
      "ord": 5889,
      "rit": 5890,
      "▁had": 5891,
      "angan": 5892,
      "af": 5893,
      "ass": 5894,
      "man": 5895,
      "ine": 5896,
      "atu": 5897,
      "angg": 5898,
      "▁ac": 5899,
      "ous": 5900,
      "a.": 5901,
      "ukan": 5902,
      "uga": 5903,
      "▁Un": 5904,
      "ind": 5905,
      "ight": 5906,
      "asa": 5907,
      "ost": 5908,
      "ua": 5909,
      "▁tr": 5910,
      "amb": 5911,
      "▁which": 5912,
      "▁are": 5913,
      "▁Ar": 5914,
      "▁mel": 5915,
      "▁juga": 5916,
      "▁4": 5917,
      "apat": 5918,
      "▁–": 5919,
      "▁bah": 5920,
      "isi": 5921,
      "her": 5922,
      "▁ser": 5923,
      "▁18": 5924,
      "ala": 5925,
      "ond": 5926,
      "ical": 5927,
      "umb": 5928,
      "▁not": 5929,
      "tion": 5930,
      "idak": 5931,
      "ika": 5932,
      "▁5": 5933,
      "ens": 5934,
      "ali": 5935,
      "oh": 5936,
      "ones": 5937,
      "▁Th": 5938,
      "▁cl": 5939,
      "▁dit": 5940,
      "ish": 5941,
      "ons": 5942,
      "▁memb": 5943,
      "ust": 5944,
      "▁re": 5945,
      "ff": 5946,
      "▁res": 5947,
      "ide": 5948,
      "upakan": 5949,
      "ahan": 5950,
      "ge": 5951,
      "19": 5952,
      "▁merupakan": 5953,
      "▁menjadi": 5954,
      "aya": 5955,
      "▁fir": 5956,
      "▁sec": 5957,
      "oul": 5958,
      "▁ro": 5959,
      "▁peng": 5960,
      "▁Mar": 5961,
      "ment": 5962,
      "ual": 5963,
      "▁ab": 5964,
      "ave": 5965,
      "▁ters": 5966,
      "ota": 5967,
      "▁des": 5968,
      "wa": 5969,
      "ue": 5970,
      "▁rec": 5971,
      "imp": 5972,
      "▁tidak": 5973,
      "ater": 5974,
      "▁pert": 5975,
      "▁int": 5976,
      "▁ap": 5977,
      "orm": 5978,
      "agian": 5979,
      "▁sel": 5980,
      "▁Per": 5981,
      "▁set": 5982,
      "▁atau": 5983,
      "ther": 5984,
      "ld": 5985,
      "▁tim": 5986,
      "▁ag": 5987,
      "▁Sp": 5988,
      "onesia": 5989,
      "ork": 5990,
      "▁As": 5991,
      "und": 5992,
      "▁meny": 5993,
      "20": 5994,
      "▁pem": 5995,
      "▁199": 5996,
      "▁inc": 5997,
      "uan": 5998,
      "▁us": 5999,
      "ional": 6000,
      "ult": 6001,
      "ure": 6002,
      "▁but": 6003,
      "uah": 6004,
      "▁Indonesia": 6005,
      "fter": 6006,
      "ould": 6007,
      "oll": 6008,
      "▁sep": 6009,
      "ey": 6010,
      "wo": 6011,
      "▁comp": 6012,
      "▁-": 6013,
      "ement": 6014,
      ".,": 6015,
      "▁Amer": 6016,
      "▁:": 6017,
      "▁;": 6018,
      "so": 6019,
      "▁Pada": 6020,
      "age": 6021,
      "▁tersebut": 6022,
      "▁kar": 6023,
      "▁6": 6024,
      "ana": 6025,
      "ign": 6026,
      "ound": 6027,
      "ata": 6028,
      "tern": 6029,
      "anj": 6030,
      "i,": 6031,
      "▁her": 6032,
      "▁first": 6033,
      "▁He": 6034,
      "ilik": 6035,
      "ome": 6036,
      "▁its": 6037,
      "▁rel": 6038,
      "ary": 6039,
      "ena": 6040,
      "▁their": 6041,
      "omp": 6042,
      "ail": 6043,
      "eka": 6044,
      "ont": 6045,
      "se": 6046,
      "▁Pr": 6047,
      "▁itu": 6048,
      "▁dib": 6049,
      "▁It": 6050,
      "ory": 6051,
      "iz": 6052,
      "▁su": 6053,
      "angk": 6054,
      "ark": 6055,
      "own": 6056,
      "),": 6057,
      "hed": 6058,
      "ence": 6059,
      "ach": 6060,
      "land": 6061,
      "▁film": 6062,
      "der": 6063,
      "▁sebuah": 6064,
      "▁also": 6065,
      "▁Pran": 6066,
      "▁kel": 6067,
      "▁7": 6068,
      "▁mus": 6069,
      "▁has": 6070,
      "inal": 6071,
      "gr": 6072,
      ").": 6073,
      "urn": 6074,
      "▁kem": 6075,
      "ice": 6076,
      "ions": 6077,
      "ile": 6078,
      "▁cont": 6079,
      "▁sek": 6080,
      "esar": 6081,
      "rop": 6082,
      "an,": 6083,
      "ept": 6084,
      "ade": 6085,
      "▁sa": 6086,
      "▁part": 6087,
      "▁ak": 6088,
      "▁one": 6089,
      "ubl": 6090,
      "▁luar": 6091,
      "▁sc": 6092,
      "ra": 6093,
      "orang": 6094,
      "enc": 6095,
      "gun": 6096,
      "▁have": 6097,
      "▁str": 6098,
      "esies": 6099,
      "▁bagian": 6100,
      "oy": 6101,
      "▁dik": 6102,
      "act": 6103,
      "iliki": 6104,
      "ely": 6105,
      "itas": 6106,
      "▁two": 6107,
      "ations": 6108,
      "▁@.": 6109,
      "▁@.@": 6110,
      "▁up": 6111,
      "▁Pro": 6112,
      "▁dapat": 6113,
      "ite": 6114,
      "ace": 6115,
      "ick": 6116,
      "▁satu": 6117,
      "iri": 6118,
      "▁lain": 6119,
      "uring": 6120,
      "▁Ser": 6121,
      "▁Sh": 6122,
      "ase": 6123,
      "ae": 6124,
      "▁8": 6125,
      "ough": 6126,
      "anc": 6127,
      "arg": 6128,
      "▁gen": 6129,
      "▁who": 6130,
      "▁been": 6131,
      "▁ia": 6132,
      "▁kep": 6133,
      "▁all": 6134,
      "ry": 6135,
      "eat": 6136,
      "▁ant": 6137,
      "les": 6138,
      "▁memiliki": 6139,
      "ode": 6140,
      "let": 6141,
      "ie": 6142,
      ",@": 6143,
      "▁@,@": 6144,
      "▁bec": 6145,
      "▁bahwa": 6146,
      "aran": 6147,
      "▁off": 6148,
      "lah": 6149,
      "▁year": 6150,
      "▁app": 6151,
      "▁telah": 6152,
      "▁(19": 6153,
      "▁this": 6154,
      "▁9": 6155,
      "ward": 6156,
      "uj": 6157,
      "olog": 6158,
      "duc": 6159,
      "empat": 6160,
      "▁rep": 6161,
      "lud": 6162,
      "▁On": 6163,
      "ebih": 6164,
      "i.": 6165,
      "over": 6166,
      "▁En": 6167,
      "iss": 6168,
      "pr": 6169,
      "▁Sel": 6170,
      "▁after": 6171,
      "▁over": 6172,
      "te": 6173,
      "ree": 6174,
      "▁play": 6175,
      "erap": 6176,
      "▁out": 6177,
      "▁ket": 6178,
      "ans": 6179,
      "▁198": 6180,
      "▁dir": 6181,
      "ustr": 6182,
      "hir": 6183,
      "▁mereka": 6184,
      "▁they": 6185,
      "▁te": 6186,
      "erti": 6187,
      "▁Br": 6188,
      "▁lebih": 6189,
      "▁New": 6190,
      "000": 6191,
      "old": 6192,
      "▁Z": 6193,
      "son": 6194,
      "ton": 6195,
      "erb": 6196,
      "▁orang": 6197,
      "▁Pranala": 6198,
      "▁Is": 6199,
      "▁mas": 6200,
      "▁berb": 6201,
      "▁le": 6202,
      "bum": 6203,
      "ition": 6204,
      "ount": 6205,
      "amil": 6206,
      "inya": 6207,
      "▁Bar": 6208,
      "▁el": 6209,
      "ited": 6210,
      "▁pend": 6211,
      "uat": 6212,
      "ors": 6213,
      "▁cons": 6214,
      "▁man": 6215,
      "▁did": 6216,
      "etap": 6217,
      "▁includ": 6218,
      "ia.": 6219,
      "ingga": 6220,
      "ivers": 6221,
      "ational": 6222,
      "eh": 6223,
      "ingk": 6224,
      "▁10": 6225,
      "ern": 6226,
      "ates": 6227,
      "ood": 6228,
      "we": 6229,
      "aus": 6230,
      "▁Des": 6231,
      "att": 6232,
      "▁bar": 6233,
      "ou": 6234,
      "▁pertama": 6235,
      "li": 6236,
      "▁would": 6237,
      "aft": 6238,
      "gunakan": 6239,
      "▁dip": 6240,
      "▁time": 6241,
      "eri": 6242,
      "▁ev": 6243,
      "one": 6244,
      "alu": 6245,
      "ican": 6246,
      "▁mend": 6247,
      "way": 6248,
      "eral": 6249,
      "▁into": 6250,
      "ja": 6251,
      "asan": 6252,
      "ings": 6253,
      "red": 6254,
      "▁seorang": 6255,
      "▁ker": 6256,
      "wn": 6257,
      "ungan": 6258,
      "▁him": 6259,
      "▁pos": 6260,
      "ank": 6261,
      "▁pol": 6262,
      "▁other": 6263,
      "▁karena": 6264,
      "ever": 6265,
      "▁bel": 6266,
      "▁akan": 6267,
      "▁bi": 6268,
      "nya,": 6269,
      "ait": 6270,
      "sp": 6271,
      "▁att": 6272,
      "▁she": 6273,
      "▁Di": 6274,
      "ild": 6275,
      "apan": 6276,
      "ased": 6277,
      "ict": 6278,
      "egara": 6279,
      "orld": 6280,
      "▁197": 6281,
      "are": 6282,
      "▁comm": 6283,
      "erapa": 6284,
      "rough": 6285,
      "▁ind": 6286,
      "cr": 6287,
      "▁dr": 6288,
      "▁bers": 6289,
      "eberapa": 6290,
      "▁de": 6291,
      "▁en": 6292,
      "ance": 6293,
      "orn": 6294,
      "▁Ad": 6295,
      "ann": 6296,
      "▁bet": 6297,
      "ina": 6298,
      "▁terb": 6299,
      "ati": 6300,
      "aman": 6301,
      "res": 6302,
      "az": 6303,
      "▁17": 6304,
      "▁more": 6305,
      "anyak": 6306,
      "▁gr": 6307,
      "able": 6308,
      "udian": 6309,
      "▁Tim": 6310,
      "▁mak": 6311,
      "air": 6312,
      "alan": 6313,
      "▁194": 6314,
      "ook": 6315,
      "reat": 6316,
      "▁secara": 6317,
      "▁0": 6318,
      "▁||": 6319,
      "▁Or": 6320,
      "▁Wh": 6321,
      "▁work": 6322,
      "akt": 6323,
      "hes": 6324,
      "▁op": 6325,
      "nya.": 6326,
      "oth": 6327,
      "orth": 6328,
      "unc": 6329,
      "▁seperti": 6330,
      "▁kec": 6331,
      "▁196": 6332,
      "mas": 6333,
      "▁rem": 6334,
      "▁sup": 6335,
      "ism": 6336,
      "▁air": 6337,
      "ock": 6338,
      "ose": 6339,
      "▁new": 6340,
      "▁we": 6341,
      "▁album": 6342,
      "uran": 6343,
      "▁Ia": 6344,
      "evel": 6345,
      "ita": 6346,
      "form": 6347,
      "unan": 6348,
      "ix": 6349,
      "agi": 6350,
      "angs": 6351,
      "▁Me": 6352,
      "umber": 6353,
      "▁Tr": 6354,
      "▁famil": 6355,
      "▁15": 6356,
      "▁dil": 6357,
      "ents": 6358,
      "▁Le": 6359,
      "iga": 6360,
      "ason": 6361,
      "▁menc": 6362,
      "▁spesies": 6363,
      "▁Pem": 6364,
      "▁sej": 6365,
      "▁besar": 6366,
      "▁fl": 6367,
      "▁when": 6368,
      "▁acc": 6369,
      "▁sem": 6370,
      "▁sub": 6371,
      "▁tak": 6372,
      "▁12": 6373,
      "▁tetap": 6374,
      "▁game": 6375,
      "asional": 6376,
      "▁gro": 6377,
      "ej": 6378,
      "▁pemb": 6379,
      "arkan": 6380,
      "ted": 6381,
      "▁Mus": 6382,
      "o,": 6383,
      "angkan": 6384,
      "asil": 6385,
      "▁pers": 6386,
      "▁At": 6387,
      "▁Joh": 6388,
      "▁class": 6389,
      "enal": 6390,
      "▁berk": 6391,
      "ics": 6392,
      "▁dec": 6393,
      "ames": 6394,
      "▁Sept": 6395,
      "▁during": 6396,
      "aten": 6397,
      "iew": 6398,
      "ses": 6399,
      "an.": 6400,
      "ween": 6401,
      "▁cent": 6402,
      "▁sur": 6403,
      "ered": 6404,
      "▁/": 6405,
      "▁min": 6406,
      "outh": 6407,
      "▁16": 6408,
      "▁exp": 6409,
      "▁again": 6410,
      "201": 6411,
      "ts": 6412,
      "▁Amerika": 6413,
      "▁most": 6414,
      "▁met": 6415,
      "▁September": 6416,
      "▁kemudian": 6417,
      "ool": 6418,
      "awa": 6419,
      "▁&": 6420,
      "udi": 6421,
      "▁them": 6422,
      "▁Gr": 6423,
      "ikat": 6424,
      "hip": 6425,
      "▁ear": 6426,
      "ife": 6427,
      "ollow": 6428,
      "▁ep": 6429,
      "▁beg": 6430,
      "▁only": 6431,
      "▁am": 6432,
      "ia,": 6433,
      "▁saat": 6434,
      "ular": 6435,
      "▁inter": 6436,
      "▁Pen": 6437,
      "gan": 6438,
      "▁Film": 6439,
      "iel": 6440,
      "▁Ag": 6441,
      "▁me": 6442,
      "▁about": 6443,
      "▁kn": 6444,
      "rist": 6445,
      "▁beberapa": 6446,
      "▁tangg": 6447,
      "▁Univers": 6448,
      "ph": 6449,
      "▁reg": 6450,
      "▁imp": 6451,
      "▁between": 6452,
      "ayah": 6453,
      "inc": 6454,
      "▁Pl": 6455,
      "▁ret": 6456,
      "itar": 6457,
      "entuk": 6458,
      "▁than": 6459,
      "▁bu": 6460,
      "▁Brit": 6461,
      "▁terd": 6462,
      "▁po": 6463,
      "aga": 6464,
      "ins": 6465,
      "=\"": 6466,
      "oid": 6467,
      "▁Cl": 6468,
      "idup": 6469,
      "▁mat": 6470,
      "▁ut": 6471,
      "▁song": 6472,
      "▁co": 6473,
      "▁later": 6474,
      "rans": 6475,
      "erman": 6476,
      "▁195": 6477,
      "▁qu": 6478,
      "▁Ac": 6479,
      "erah": 6480,
      "ilayah": 6481,
      "ash": 6482,
      "▁three": 6483,
      "▁end": 6484,
      "▁Col": 6485,
      "▁11": 6486,
      "ulai": 6487,
      "▁ked": 6488,
      "▁dep": 6489,
      "agu": 6490,
      "erint": 6491,
      "ected": 6492,
      "ision": 6493,
      "aik": 6494,
      "▁form": 6495,
      "abup": 6496,
      "erg": 6497,
      "abupaten": 6498,
      "ident": 6499,
      "▁John": 6500,
      "awan": 6501,
      "▁through": 6502,
      "ike": 6503,
      "ros": 6504,
      "▁Ang": 6505,
      "▁ada": 6506,
      "▁II": 6507,
      "idae": 6508,
      "▁Bl": 6509,
      "▁mil": 6510,
      "ale": 6511,
      "ll": 6512,
      "▁pop": 6513,
      "istr": 6514,
      "ulis": 6515,
      "▁setelah": 6516,
      "ima": 6517,
      "▁prov": 6518,
      "▁Jul": 6519,
      "▁publ": 6520,
      "yc": 6521,
      "▁mod": 6522,
      "erta": 6523,
      "eop": 6524,
      "u,": 6525,
      "aja": 6526,
      "akukan": 6527,
      "o.": 6528,
      "▁bert": 6529,
      "ks": 6530,
      "▁so": 6531,
      "ays": 6532,
      "▁do": 6533,
      "omb": 6534,
      "▁antara": 6535,
      "▁salah": 6536,
      "uhan": 6537,
      "▁Jan": 6538,
      "▁def": 6539,
      "▁high": 6540,
      "▁epis": 6541,
      "▁while": 6542,
      "ex": 6543,
      "min": 6544,
      "arah": 6545,
      "▁mon": 6546,
      "fore": 6547,
      "ium": 6548,
      "ang.": 6549,
      "▁rele": 6550,
      "▁War": 6551,
      "▁Ab": 6552,
      "ious": 6553,
      "▁Jun": 6554,
      "▁produc": 6555,
      "▁ass": 6556,
      "▁bl": 6557,
      "▁kes": 6558,
      "umum": 6559,
      "▁char": 6560,
      "▁put": 6561,
      "▁rev": 6562,
      "▁Sc": 6563,
      "ris": 6564,
      "▁war": 6565,
      "ath": 6566,
      "amatan": 6567,
      "ump": 6568,
      "ikut": 6569,
      "ampai": 6570,
      "▁13": 6571,
      "tob": 6572,
      "▁Car": 6573,
      "▁banyak": 6574,
      "▁mengh": 6575,
      "ogr": 6576,
      "iet": 6577,
      "▁tel": 6578,
      "▁art": 6579,
      "▁Nov": 6580,
      "ished": 6581,
      "wal": 6582,
      "port": 6583,
      "▁sy": 6584,
      "ived": 6585,
      "▁pres": 6586,
      "▁dua": 6587,
      "▁Peng": 6588,
      "▁record": 6589,
      "▁peny": 6590,
      "▁second": 6591,
      "tober": 6592,
      "ulan": 6593,
      "elum": 6594,
      "▁000": 6595,
      "ury": 6596,
      "▁pre": 6597,
      "ayu": 6598,
      "ola": 6599,
      "▁—": 6600,
      "▁2000": 6601,
      "▁no": 6602,
      "▁sing": 6603,
      "▁14": 6604,
      "▁where": 6605,
      "▁kota": 6606,
      "tor": 6607,
      "▁made": 6608,
      "▁pel": 6609,
      "▁Q": 6610,
      "urr": 6611,
      "cess": 6612,
      "▁spec": 6613,
      "▁atas": 6614,
      "aut": 6615,
      "ten": 6616,
      "▁season": 6617,
      "ating": 6618,
      "▁Austr": 6619,
      "hy": 6620,
      "▁ref": 6621,
      "tur": 6622,
      "eks": 6623,
      "▁four": 6624,
      "▁25": 6625,
      "ower": 6626,
      "▁writ": 6627,
      "▁follow": 6628,
      "als": 6629,
      "arak": 6630,
      "▁Am": 6631,
      "era": 6632,
      "enn": 6633,
      "▁such": 6634,
      "ingkat": 6635,
      "▁ob": 6636,
      "▁Serikat": 6637,
      "ific": 6638,
      "▁Kabupaten": 6639,
      "▁inv": 6640,
      "ting": 6641,
      "▁under": 6642,
      "▁some": 6643,
      "▁hingga": 6644,
      "ebr": 6645,
      "▁tanggal": 6646,
      "▁negara": 6647,
      "▁before": 6648,
      "do": 6649,
      "erv": 6650,
      "▁United": 6651,
      "onom": 6652,
      "ied": 6653,
      "anding": 6654,
      "aki": 6655,
      "uas": 6656,
      "▁This": 6657,
      "ula": 6658,
      "ained": 6659,
      "▁ke-": 6660,
      "▁years": 6661,
      "▁wilayah": 6662,
      "ren": 6663,
      "unya": 6664,
      "200": 6665,
      "▁Pol": 6666,
      "omm": 6667,
      "▁2011": 6668,
      "▁there": 6669,
      "aks": 6670,
      "▁(201": 6671,
      "ley": 6672,
      "unia": 6673,
      "iter": 6674,
      "▁ent": 6675,
      "▁team": 6676,
      "▁bahasa": 6677,
      "ang,": 6678,
      "inn": 6679,
      "ron": 6680,
      "ines": 6681,
      "▁mov": 6682,
      "ech": 6683,
      "▁193": 6684,
      "▁kepada": 6685,
      "ise": 6686,
      "▁kali": 6687,
      "▁med": 6688,
      "▁Bel": 6689,
      "eter": 6690,
      "▁serv": 6691,
      "a-": 6692,
      "▁nam": 6693,
      "▁hal": 6694,
      "▁tetapi": 6695,
      "▁Jep": 6696,
      "▁Par": 6697,
      "▁2012": 6698,
      "▁call": 6699,
      "▁2009": 6700,
      "▁Eng": 6701,
      "▁Fran": 6702,
      "▁Man": 6703,
      "▁da": 6704,
      "▁tent": 6705,
      "▁nama": 6706,
      "uku": 6707,
      "its": 6708,
      "▁used": 6709,
      "pril": 6710,
      "engah": 6711,
      "owever": 6712,
      "▁para": 6713,
      "usah": 6714,
      "kin": 6715,
      "evelop": 6716,
      "▁episode": 6717,
      "uary": 6718,
      "▁member": 6719,
      "ection": 6720,
      "▁American": 6721,
      "▁can": 6722,
      "▁April": 6723,
      "ute": 6724,
      "unj": 6725,
      "ier": 6726,
      "▁being": 6727,
      "umlah": 6728,
      "▁Set": 6729,
      "▁sed": 6730,
      "aftar": 6731,
      "▁World": 6732,
      "▁km": 6733,
      "isa": 6734,
      "na": 6735,
      "▁Har": 6736,
      "▁Ber": 6737,
      "▁loc": 6738,
      "other": 6739,
      "▁November": 6740,
      "very": 6741,
      "duk": 6742,
      "▁against": 6743,
      "▁then": 6744,
      "▁sang": 6745,
      "▁tingg": 6746,
      "▁After": 6747,
      "▁par": 6748,
      "▁Seb": 6749,
      "▁send": 6750,
      "ince": 6751,
      "▁Kar": 6752,
      "ird": 6753,
      "ilih": 6754,
      "▁24": 6755,
      "▁She": 6756,
      "▁Re": 6757,
      "..": 6758,
      "▁Ed": 6759,
      "▁br": 6760,
      "▁Ph": 6761,
      "imal": 6762,
      "▁oper": 6763,
      "asanya": 6764,
      "ator": 6765,
      "▁For": 6766,
      "uch": 6767,
      "▁digunakan": 6768,
      "ica": 6769,
      "▁X": 6770,
      "▁number": 6771,
      "chool": 6772,
      "yp": 6773,
      "▁vers": 6774,
      "▁Con": 6775,
      "▁ed": 6776,
      "ars": 6777,
      "▁found": 6778,
      "led": 6779,
      "dom": 6780,
      "▁angg": 6781,
      "anda": 6782,
      "▁pas": 6783,
      "▁sever": 6784,
      "▁genus": 6785,
      "▁kayu": 6786,
      "▁York": 6787,
      "ield": 6788,
      "adap": 6789,
      "▁dim": 6790,
      "\".": 6791,
      "▁yait": 6792,
      "ij": 6793,
      "▁inf": 6794,
      "▁Rom": 6795,
      "▁El": 6796,
      "▁Ak": 6797,
      "▁cap": 6798,
      "▁including": 6799,
      "▁show": 6800,
      "ause": 6801,
      "ities": 6802,
      "overn": 6803,
      "▁both": 6804,
      "▁back": 6805,
      "olah": 6806,
      "▁well": 6807,
      "▁sebelum": 6808,
      "▁final": 6809,
      "▁add": 6810,
      "▁became": 6811,
      "▁dia": 6812,
      "iam": 6813,
      "▁series": 6814,
      "▁yaitu": 6815,
      "▁serta": 6816,
      "teroid": 6817,
      "▁Str": 6818,
      "▁memp": 6819,
      "akil": 6820,
      "▁Austral": 6821,
      "▁main": 6822,
      "▁umum": 6823,
      "▁Mal": 6824,
      "anjang": 6825,
      "ised": 6826,
      "▁And": 6827,
      "ui": 6828,
      "gram": 6829,
      "olong": 6830,
      "emen": 6831,
      "▁trans": 6832,
      "ikasi": 6833,
      "▁im": 6834,
      "▁polit": 6835,
      "▁keb": 6836,
      "ire": 6837,
      "ulau": 6838,
      "asih": 6839,
      "▁kemb": 6840,
      "▁famili": 6841,
      "▁Intern": 6842,
      "is,": 6843,
      "oot": 6844,
      "usia": 6845,
      "-s": 6846,
      "ets": 6847,
      "▁tan": 6848,
      "utan": 6849,
      "lin": 6850,
      "▁US": 6851,
      "▁har": 6852,
      "▁Selatan": 6853,
      "▁lead": 6854,
      "▁Ge": 6855,
      "▁akhir": 6856,
      "▁Indonesia.": 6857,
      "iver": 6858,
      "▁sen": 6859,
      "ative": 6860,
      "umah": 6861,
      "▁long": 6862,
      "▁hanya": 6863,
      "at,": 6864,
      "ures": 6865,
      "▁terg": 6866,
      "▁2010": 6867,
      "▁May": 6868,
      "iap": 6869,
      "arang": 6870,
      "▁Dr": 6871,
      "▁Se": 6872,
      "▁Spesies": 6873,
      "omin": 6874,
      "▁conc": 6875,
      "▁dem": 6876,
      "▁terj": 6877,
      "▁tempat": 6878,
      "▁Ut": 6879,
      "▁Dalam": 6880,
      "▁desa": 6881,
      "▁biasanya": 6882,
      "▁ship": 6883,
      "▁selama": 6884,
      "▁191": 6885,
      "▁car": 6886,
      "▁30": 6887,
      "▁kom": 6888,
      "yah": 6889,
      "▁suc": 6890,
      "ull": 6891,
      "my": 6892,
      "uari": 6893,
      "▁ordo": 6894,
      "by": 6895,
      "fer": 6896,
      "▁appear": 6897,
      "ral": 6898,
      "▁develop": 6899,
      "aling": 6900,
      "▁2008": 6901,
      "itus": 6902,
      "arge": 6903,
      "awah": 6904,
      "ope": 6905,
      "▁ins": 6906,
      "▁may": 6907,
      "▁awal": 6908,
      "▁sekitar": 6909,
      "ject": 6910,
      "ouse": 6911,
      "uduk": 6912,
      "▁terk": 6913,
      "▁sign": 6914,
      "▁many": 6915,
      "▁$": 6916,
      "insi": 6917,
      "▁seh": 6918,
      "els": 6919,
      "udah": 6920,
      "▁sama": 6921,
      "▁kelas": 6922,
      "▁Rep": 6923,
      "eker": 6924,
      "ingdom": 6925,
      "▁Min": 6926,
      "▁berd": 6927,
      "▁go": 6928,
      "▁cr": 6929,
      "ax": 6930,
      "▁contin": 6931,
      "masuk": 6932,
      "▁bro": 6933,
      "ett": 6934,
      "▁menggunakan": 6935,
      "▁run": 6936,
      "-k": 6937,
      "▁cre": 6938,
      "ck": 6939,
      "ped": 6940,
      "▁Men": 6941,
      "▁orig": 6942,
      "▁hidup": 6943,
      "▁kembali": 6944,
      "fr": 6945,
      "▁bersama": 6946,
      "▁terh": 6947,
      "▁Kep": 6948,
      "imb": 6949,
      "▁Ing": 6950,
      "▁could": 6951,
      "ces": 6952,
      "▁rece": 6953,
      "though": 6954,
      "truc": 6955,
      "lam": 6956,
      "▁Febr": 6957,
      "▁anak": 6958,
      "▁mill": 6959,
      "ideo": 6960,
      "rov": 6961,
      "wan": 6962,
      "▁disebut": 6963,
      "ilis": 6964,
      "▁2007": 6965,
      "▁[": 6966,
      "ross": 6967,
      "uruh": 6968,
      "▁Will": 6969,
      "▁pern": 6970,
      "letak": 6971,
      "ales": 6972,
      "▁organ": 6973,
      "▁est": 6974,
      "atakan": 6975,
      "eed": 6976,
      "ox": 6977,
      "▁Air": 6978,
      "▁class=\"": 6979,
      "akart": 6980,
      "ori": 6981,
      "ove": 6982,
      "▁several": 6983,
      "▁Sy": 6984,
      "mp": 6985,
      "▁Desa": 6986,
      "▁known": 6987,
      "▁maj": 6988,
      "u.": 6989,
      "▁diff": 6990,
      "wards": 6991,
      "▁pemerint": 6992,
      "▁fr": 6993,
      "▁sm": 6994,
      "ather": 6995,
      "▁sangat": 6996,
      "▁telev": 6997,
      "▁()": 6998,
      "impin": 6999,
      "▁Mer": 7000,
      "▁itu,": 7001,
      "▁Ter": 7002,
      "▁Kota": 7003,
      "cis": 7004,
      "usahaan": 7005,
      "oin": 7006,
      "ange": 7007,
      "▁membuat": 7008,
      "▁ses": 7009,
      "istory": 7010,
      "▁act": 7011,
      "▁terletak": 7012,
      "▁Gu": 7013,
      "alat": 7014,
      "alui": 7015,
      "eople": 7016,
      "▁sampai": 7017,
      "▁fil": 7018,
      "▁dikenal": 7019,
      "ne": 7020,
      "▁said": 7021,
      "ually": 7022,
      "▁pass": 7023,
      "▁anggota": 7024,
      "lor": 7025,
      "pos": 7026,
      "for": 7027,
      "ahkan": 7028,
      "cc": 7029,
      "iev": 7030,
      "eran": 7031,
      "▁berh": 7032,
      "▁resp": 7033,
      "▁near": 7034,
      "▁col": 7035,
      "ime": 7036,
      "▁began": 7037,
      "ains": 7038,
      "uss": 7039,
      "▁Gen": 7040,
      "▁offic": 7041,
      "▁any": 7042,
      "21": 7043,
      "ued": 7044,
      "▁design": 7045,
      "▁feat": 7046,
      "atal": 7047,
      "stem": 7048,
      "▁Dia": 7049,
      "asal": 7050,
      "▁peri": 7051,
      "▁descr": 7052,
      "▁early": 7053,
      "atur": 7054,
      "▁hari": 7055,
      "▁Tok": 7056,
      "▁berada": 7057,
      "aul": 7058,
      "ior": 7059,
      "▁lagu": 7060,
      "▁Inggr": 7061,
      "▁perm": 7062,
      "▁day": 7063,
      "▁diper": 7064,
      "ution": 7065,
      "▁Aug": 7066,
      "mi": 7067,
      "iran": 7068,
      "▁down": 7069,
      "▁return": 7070,
      "vent": 7071,
      "ask": 7072,
      "ounty": 7073,
      "ahasa": 7074,
      "▁sl": 7075,
      "▁called": 7076,
      "▁sk": 7077,
      "▁tert": 7078,
      "urut": 7079,
      "itt": 7080,
      "▁SM": 7081,
      "ake": 7082,
      "▁British": 7083,
      "unt": 7084,
      "▁band": 7085,
      "acter": 7086,
      "▁sendiri": 7087,
      "▁eff": 7088,
      "▁(1": 7089,
      "ani": 7090,
      "uang": 7091,
      "▁tergolong": 7092,
      "▁Sek": 7093,
      "ink": 7094,
      "▁own": 7095,
      "▁tentang": 7096,
      "ists": 7097,
      "ner": 7098,
      "ital": 7099,
      "▁Gre": 7100,
      "▁Pres": 7101,
      "uka": 7102,
      "usan": 7103,
      "umbang": 7104,
      "▁August": 7105,
      "▁States": 7106,
      "▁pes": 7107,
      "▁group": 7108,
      "▁(200": 7109,
      "▁berp": 7110,
      "▁until": 7111,
      "▁masa": 7112,
      "eet": 7113,
      "▁Ap": 7114,
      "io": 7115,
      "▁bat": 7116,
      "▁music": 7117,
      "▁Pers": 7118,
      "ful": 7119,
      "▁2006": 7120,
      "enis": 7121,
      "▁dig": 7122,
      "ampil": 7123,
      "▁popul": 7124,
      "▁Mc": 7125,
      "iden": 7126,
      "ially": 7127,
      "esk": 7128,
      "▁Ke": 7129,
      "▁All": 7130,
      "▁Part": 7131,
      "▁released": 7132,
      "ided": 7133,
      "0s": 7134,
      "ven": 7135,
      "idae.": 7136,
      "▁coun": 7137,
      "▁disc": 7138,
      "anan": 7139,
      "▁melalui": 7140,
      "▁Cent": 7141,
      "-b": 7142,
      "▁Ket": 7143,
      "isasi": 7144,
      "▁bulan": 7145,
      "idge": 7146,
      "▁mulai": 7147,
      "ible": 7148,
      "ologi": 7149,
      "▁Daftar": 7150,
      "at.": 7151,
      "▁21": 7152,
      "urg": 7153,
      "▁Bro": 7154,
      "▁these": 7155,
      "ebab": 7156,
      "▁Comm": 7157,
      "▁Ir": 7158,
      "uth": 7159,
      "atkan": 7160,
      "▁crit": 7161,
      "▁Timur": 7162,
      "▁terhadap": 7163,
      "▁Kom": 7164,
      "aim": 7165,
      "▁termasuk": 7166,
      "▁Mei": 7167,
      "▁asteroid": 7168,
      "▁along": 7169,
      "▁Rob": 7170,
      "▁ketika": 7171,
      "▁inst": 7172,
      "▁Christ": 7173,
      "▁open": 7174,
      "elf": 7175,
      "iah": 7176,
      "▁area": 7177,
      "▁baru": 7178,
      "ended": 7179,
      "uda": 7180,
      "engg": 7181,
      "▁kedua": 7182,
      "yarak": 7183,
      "aktu": 7184,
      "idikan": 7185,
      "-1": 7186,
      "▁fin": 7187,
      "pl": 7188,
      "▁del": 7189,
      "▁Setelah": 7190,
      "▁berm": 7191,
      "ni": 7192,
      "▁Ins": 7193,
      "▁million": 7194,
      "▁2013": 7195,
      "▁berg": 7196,
      "▁govern": 7197,
      "▁North": 7198,
      "▁kek": 7199,
      "▁Cer": 7200,
      "▁Jepang": 7201,
      "aris": 7202,
      "▁keluar": 7203,
      "▁intern": 7204,
      "iong": 7205,
      "istem": 7206,
      "e,": 7207,
      "▁Nam": 7208,
      "▁Kec": 7209,
      "▁Can": 7210,
      "▁Sur": 7211,
      "ival": 7212,
      "▁plan": 7213,
      "▁original": 7214,
      "▁point": 7215,
      "▁utama": 7216,
      "▁komp": 7217,
      "▁trad": 7218,
      "▁Ok": 7219,
      "ini": 7220,
      "ementara": 7221,
      "▁z": 7222,
      "'s": 7223,
      "▁memper": 7224,
      "ced": 7225,
      "▁support": 7226,
      "aining": 7227,
      "ently": 7228,
      "▁tit": 7229,
      "▁start": 7230,
      "▁people": 7231,
      "emukan": 7232,
      "▁same": 7233,
      "▁berj": 7234,
      "try": 7235,
      "eth": 7236,
      "▁describ": 7237,
      "ungkin": 7238,
      "▁land": 7239,
      "▁berl": 7240,
      "▁Dec": 7241,
      "ired": 7242,
      "▁rumah": 7243,
      "▁Med": 7244,
      "tions": 7245,
      "rol": 7246,
      "ott": 7247,
      "ing,": 7248,
      "ally": 7249,
      "▁occ": 7250,
      "▁leg": 7251,
      ".M": 7252,
      "▁bawah": 7253,
      "lu": 7254,
      "▁vari": 7255,
      "▁masih": 7256,
      "urch": 7257,
      "▁sehingga": 7258,
      "▁Arth": 7259,
      "med": 7260,
      "aced": 7261,
      "egeri": 7262,
      "erbit": 7263,
      "▁success": 7264,
      "▁sejak": 7265,
      "▁22": 7266,
      "lish": 7267,
      "▁world": 7268,
      "men": 7269,
      "▁though": 7270,
      "ga": 7271,
      "AN": 7272,
      "▁daerah": 7273,
      "▁ilm": 7274,
      "ograp": 7275,
      "▁character": 7276,
      "▁use": 7277,
      "ress": 7278,
      "ats": 7279,
      "▁arr": 7280,
      "▁Inggris": 7281,
      "▁2014": 7282,
      "▁Tiong": 7283,
      "▁100": 7284,
      "▁Sw": 7285,
      "ys": 7286,
      "▁attack": 7287,
      "ling": 7288,
      "ives": 7289,
      "oss": 7290,
      "▁Oc": 7291,
      "eath": 7292,
      "round": 7293,
      "▁Sen": 7294,
      "▁berasal": 7295,
      "▁2015": 7296,
      "oard": 7297,
      "▁Kel": 7298,
      "duksi": 7299,
      "▁batt": 7300,
      "22": 7301,
      "uara": 7302,
      "▁Kore": 7303,
      "ians": 7304,
      "ony": 7305,
      "▁around": 7306,
      "asar": 7307,
      "▁Nor": 7308,
      "▁north": 7309,
      "ission": 7310,
      "▁video": 7311,
      "▁Jawa": 7312,
      "▁Republ": 7313,
      "ebabkan": 7314,
      "▁Ital": 7315,
      "orp": 7316,
      "▁University": 7317,
      "▁23": 7318,
      "▁gu": 7319,
      "yle": 7320,
      "eta": 7321,
      "▁musik": 7322,
      "▁single": 7323,
      "▁dat": 7324,
      "▁Comp": 7325,
      "▁because": 7326,
      "▁bagi": 7327,
      "▁kh": 7328,
      "▁div": 7329,
      "akhir": 7330,
      "ister": 7331,
      "▁gun": 7332,
      "▁mag": 7333,
      "ania": 7334,
      "ility": 7335,
      "▁Pemb": 7336,
      "▁mengg": 7337,
      "▁century": 7338,
      "ler": 7339,
      "▁took": 7340,
      "▁Be": 7341,
      "▁six": 7342,
      "▁mendapat": 7343,
      "▁Eur": 7344,
      "▁like": 7345,
      "▁top": 7346,
      "▁prof": 7347,
      "▁result": 7348,
      "▁Mas": 7349,
      "olv": 7350,
      "aur": 7351,
      "row": 7352,
      "▁%": 7353,
      "▁report": 7354,
      "ried": 7355,
      "▁Jerman": 7356,
      "▁Geor": 7357,
      "abat": 7358,
      "▁Japan": 7359,
      "▁Prov": 7360,
      "aving": 7361,
      "▁kumbang": 7362,
      "▁following": 7363,
      "▁consid": 7364,
      "▁turn": 7365,
      "▁five": 7366,
      "▁merek": 7367,
      "▁2005": 7368,
      "▁South": 7369,
      "app": 7370,
      "upun": 7371,
      "yr": 7372,
      "▁...": 7373,
      "ingan": 7374,
      "▁De": 7375,
      "▁They": 7376,
      "▁ann": 7377,
      "ma": 7378,
      "oon": 7379,
      "yat": 7380,
      "▁bisa": 7381,
      "▁kingdom": 7382,
      "▁complet": 7383,
      "▁Pert": 7384,
      "ugg": 7385,
      "hel": 7386,
      "▁County": 7387,
      "▁Ker": 7388,
      "▁Char": 7389,
      "▁However": 7390,
      "ants": 7391,
      "▁William": 7392,
      "▁build": 7393,
      "▁received": 7394,
      "ote": 7395,
      "ensi": 7396,
      "▁Sa": 7397,
      "ilt": 7398,
      "ized": 7399,
      "▁bola": 7400,
      "uru": 7401,
      "▁June": 7402,
      "asarkan": 7403,
      "▁head": 7404,
      "▁small": 7405,
      "ements": 7406,
      "ekn": 7407,
      "▁red": 7408,
      "uck": 7409,
      "usat": 7410,
      "lex": 7411,
      "ubah": 7412,
      "▁]": 7413,
      "▁October": 7414,
      "▁program": 7415,
      "iving": 7416,
      "▁Mich": 7417,
      "▁state": 7418,
      "atif": 7419,
      "ipt": 7420,
      "▁prot": 7421,
      "trib": 7422,
      "▁melakukan": 7423,
      "▁Utara": 7424,
      "▁kon": 7425,
      "of": 7426,
      "▁city": 7427,
      "▁each": 7428,
      "▁life": 7429,
      "irikan": 7430,
      "\",": 7431,
      "rad": 7432,
      ".S": 7433,
      "ording": 7434,
      "▁em": 7435,
      "▁pernah": 7436,
      "▁stud": 7437,
      "ecies": 7438,
      "▁kons": 7439,
      "▁berbagai": 7440,
      "▁Ex": 7441,
      "▁public": 7442,
      "us,": 7443,
      "inggal": 7444,
      "eph": 7445,
      "▁waktu": 7446,
      "▁terjadi": 7447,
      "usi": 7448,
      "ford": 7449,
      "▁National": 7450,
      "ext": 7451,
      "eft": 7452,
      "ically": 7453,
      "angunan": 7454,
      "▁ph": 7455,
      "ient": 7456,
      "line": 7457,
      "▁Dan": 7458,
      "un,": 7459,
      "▁abad": 7460,
      "▁Sing": 7461,
      "uman": 7462,
      "▁coll": 7463,
      "▁partic": 7464,
      "▁ini,": 7465,
      "ague": 7466,
      "▁190": 7467,
      "ret": 7468,
      "▁2004": 7469,
      "-p": 7470,
      "▁Cal": 7471,
      "yarakat": 7472,
      "▁will": 7473,
      "anjut": 7474,
      "▁system": 7475,
      "▁kecil": 7476,
      "▁Ro": 7477,
      "▁July": 7478,
      "eum": 7479,
      "▁tiga": 7480,
      "▁Animal": 7481,
      "▁Pend": 7482,
      "ondon": 7483,
      "▁musim": 7484,
      "ateg": 7485,
      "▁person": 7486,
      "▁(P": 7487,
      "▁March": 7488,
      "ately": 7489,
      "▁Sec": 7490,
      "▁hel": 7491,
      "-l": 7492,
      "▁since": 7493,
      "eal": 7494,
      "▁Dav": 7495,
      "oint": 7496,
      "▁Kh": 7497,
      "ney": 7498,
      "angkat": 7499,
      "udara": 7500,
      "▁bern": 7501,
      "aka": 7502,
      "▁(d": 7503,
      "▁Universitas": 7504,
      "▁By": 7505,
      "▁major": 7506,
      "angi": 7507,
      "ues": 7508,
      "▁Res": 7509,
      "▁kl": 7510,
      "ereja": 7511,
      "erbitkan": 7512,
      "▁mana": 7513,
      "asis": 7514,
      "aku": 7515,
      "▁Band": 7516,
      "unjuk": 7517,
      "▁paling": 7518,
      "ami": 7519,
      "▁la": 7520,
      "▁es": 7521,
      "▁dih": 7522,
      "▁Mel": 7523,
      "▁27": 7524,
      "▁filum": 7525,
      "nd": 7526,
      "▁perusahaan": 7527,
      "▁Afr": 7528,
      "angsung": 7529,
      "▁ek": 7530,
      "▁(199": 7531,
      "▁sepak": 7532,
      "▁London": 7533,
      "akarta": 7534,
      "▁adv": 7535,
      "▁kap": 7536,
      "▁sudah": 7537,
      "tain": 7538,
      "▁last": 7539,
      "▁suatu": 7540,
      "▁City": 7541,
      "▁Animalia.": 7542,
      "▁din": 7543,
      "▁terdiri": 7544,
      "▁tot": 7545,
      "▁penduduk": 7546,
      "▁mar": 7547,
      "▁terl": 7548,
      "engk": 7549,
      "yl": 7550,
      "▁Sum": 7551,
      "ages": 7552,
      "▁book": 7553,
      "▁school": 7554,
      "ha": 7555,
      "erm": 7556,
      "▁order": 7557,
      "ides": 7558,
      "sk": 7559,
      "▁192": 7560,
      "▁ib": 7561,
      "-t": 7562,
      "▁left": 7563,
      "ored": 7564,
      "stit": 7565,
      "asikan": 7566,
      "▁line": 7567,
      "ty": 7568,
      "ihat": 7569,
      "oda,": 7570,
      "▁(S": 7571,
      "antan": 7572,
      "▁Oktober": 7573,
      "ompok": 7574,
      "▁Kecamatan": 7575,
      "oci": 7576,
      "rew": 7577,
      "▁prev": 7578,
      "oung": 7579,
      "▁direct": 7580,
      "▁terp": 7581,
      "ody": 7582,
      "er,": 7583,
      "isme": 7584,
      "awat": 7585,
      "▁December": 7586,
      "ambyc": 7587,
      "▁Cerambyc": 7588,
      "▁vis": 7589,
      "tera,": 7590,
      "aged": 7591,
      "▁baik": 7592,
      "▁Sal": 7593,
      "▁semua": 7594,
      "esi": 7595,
      "▁Nama": 7596,
      "ively": 7597,
      "▁Che": 7598,
      "▁Park": 7599,
      "▁G.,": 7600,
      "▁Insect": 7601,
      "▁gel": 7602,
      "▁Mon": 7603,
      ".M.,": 7604,
      "amm": 7605,
      "▁28": 7606,
      "▁We": 7607,
      "ropoda,": 7608,
      "avy": 7609,
      "▁just": 7610,
      "ush": 7611,
      "▁(s": 7612,
      "▁Arthropoda,": 7613,
      "▁Insecta,": 7614,
      "▁26": 7615,
      "▁resmi": 7616,
      "▁Prancis": 7617,
      "▁menyebabkan": 7618,
      "▁allow": 7619,
      "apai": 7620,
      "▁International": 7621,
      "ene": 7622,
      "aff": 7623,
      "▁kecamatan": 7624,
      "ti": 7625,
      "II": 7626,
      "▁Ros": 7627,
      "▁Hal": 7628,
      "▁Sej": 7629,
      "▁During": 7630,
      "ajaan": 7631,
      "▁large": 7632,
      "▁Rec": 7633,
      "ambil": 7634,
      "ingin": 7635,
      "▁dam": 7636,
      "▁Islam": 7637,
      "▁government": 7638,
      "▁terdapat": 7639,
      "ified": 7640,
      "atian": 7641,
      "ared": 7642,
      "adem": 7643,
      "▁keh": 7644,
      "atus": 7645,
      "▁third": 7646,
      "▁sim": 7647,
      "ured": 7648,
      "▁January": 7649,
      "▁189": 7650,
      "▁Dem": 7651,
      "▁dilakukan": 7652,
      "▁Tokoh": 7653,
      "▁south": 7654,
      "▁harus": 7655,
      "▁old": 7656,
      "▁West": 7657,
      "▁if": 7658,
      "▁When": 7659,
      "▁month": 7660,
      "▁eng": 7661,
      "▁differ": 7662,
      "▁Sup": 7663,
      "▁Kat": 7664,
      "▁due": 7665,
      "▁2016": 7666,
      "▁played": 7667,
      "udd": 7668,
      "asiun": 7669,
      "istor": 7670,
      "eak": 7671,
      "▁short": 7672,
      "ar,": 7673,
      "rote": 7674,
      "angun": 7675,
      "▁conf": 7676,
      "▁based": 7677,
      "ham": 7678,
      "yn": 7679,
      "▁what": 7680,
      "▁perk": 7681,
      "▁kill": 7682,
      "▁\"S": 7683,
      "▁Kem": 7684,
      "ology": 7685,
      "ungg": 7686,
      "ungai": 7687,
      "▁bre": 7688,
      "▁panjang": 7689,
      "▁India": 7690,
      "▁another": 7691,
      "udaya": 7692,
      "▁Mad": 7693,
      "▁much": 7694,
      "▁incre": 7695,
      "▁ext": 7696,
      "idang": 7697,
      "▁dunia": 7698,
      "▁Ib": 7699,
      "ese": 7700,
      "▁Her": 7701,
      "ahir": 7702,
      "▁general": 7703,
      "▁sistem": 7704,
      "▁diri": 7705,
      "ches": 7706,
      "ington": 7707,
      "▁Bo": 7708,
      "▁Gl": 7709,
      "▁track": 7710,
      "▁event": 7711,
      "▁mark": 7712,
      "▁seluruh": 7713,
      "ubungan": 7714,
      "▁name": 7715,
      "▁Sep": 7716,
      "oph": 7717,
      "▁led": 7718,
      "ipun": 7719,
      "▁lainnya": 7720,
      "en,": 7721,
      "alk": 7722,
      "urs": 7723,
      "ament": 7724,
      "3)": 7725,
      "▁Provinsi": 7726,
      "rench": 7727,
      "etah": 7728,
      "ning": 7729,
      "▁requ": 7730,
      "▁German": 7731,
      "idd": 7732,
      "▁Er": 7733,
      "ole": 7734,
      "▁Ann": 7735,
      "▁included": 7736,
      "▁web": 7737,
      "ilar": 7738,
      "▁asal": 7739,
      "ilah": 7740,
      "com": 7741,
      "▁won": 7742,
      "▁death": 7743,
      "▁Pal": 7744,
      "ik,": 7745,
      "▁total": 7746,
      "▁larg": 7747,
      "▁2001": 7748,
      "▁dek": 7749,
      "▁care": 7750,
      "▁His": 7751,
      "kok": 7752,
      "ida": 7753,
      "ukum": 7754,
      "harg": 7755,
      "▁wrote": 7756,
      "▁Te": 7757,
      "▁power": 7758,
      "▁Cr": 7759,
      "▁story": 7760,
      "annya": 7761,
      "▁described": 7762,
      "▁Sch": 7763,
      "▁Dunia": 7764,
      "ature": 7765,
      "▁home": 7766,
      "▁temp": 7767,
      "▁Australia": 7768,
      "▁Soc": 7769,
      "ura": 7770,
      "▁dij": 7771,
      "▁family": 7772,
      "akit": 7773,
      "▁inform": 7774,
      "▁review": 7775,
      "▁masyarakat": 7776,
      "▁French": 7777,
      "ery": 7778,
      "▁Sam": 7779,
      "▁place": 7780,
      "ops": 7781,
      "ball": 7782,
      "▁Korea": 7783,
      "▁meninggal": 7784,
      "hargaan": 7785,
      "ense": 7786,
      "▁diterbitkan": 7787,
      ".000": 7788,
      "▁named": 7789,
      "▁ten": 7790,
      "va": 7791,
      "▁29": 7792,
      "pa": 7793,
      "eda": 7794,
      "50": 7795,
      "▁50": 7796,
      "▁det": 7797,
      "anggap": 7798,
      "ences": 7799,
      "▁Kal": 7800,
      "▁UK": 7801,
      "▁modern": 7802,
      "IS": 7803,
      "riend": 7804,
      "eskipun": 7805,
      "ee": 7806,
      "ested": 7807,
      "▁sementara": 7808,
      "ius": 7809,
      "▁televisi": 7810,
      "▁jumlah": 7811,
      "▁seg": 7812,
      "askan": 7813,
      "lo": 7814,
      "ness": 7815,
      "▁James": 7816,
      "▁karya": 7817,
      "ief": 7818,
      "▁tersebut.": 7819,
      ".S.": 7820,
      "iwa": 7821,
      "▁previous": 7822,
      "erima": 7823,
      "irk": 7824,
      "itions": 7825,
      "▁Phil": 7826,
      "▁kal": 7827,
      "▁attemp": 7828,
      "▁pemain": 7829,
      "▁term": 7830,
      "▁bernama": 7831,
      "▁sent": 7832,
      "▁now": 7833,
      "▁non": 7834,
      "▁perc": 7835,
      "▁Negeri": 7836,
      "▁cour": 7837,
      "▁hand": 7838,
      "abor": 7839,
      "osp": 7840,
      "ban": 7841,
      "▁Div": 7842,
      "ering": 7843,
      "inta": 7844,
      "▁Erop": 7845,
      "▁So": 7846,
      "▁Selain": 7847,
      "▁2003": 7848,
      "s.": 7849,
      "▁und": 7850,
      "▁Ass": 7851,
      "▁games": 7852,
      "▁make": 7853,
      "▁'t": 7854,
      "que": 7855,
      "sh": 7856,
      "urkan": 7857,
      "empuan": 7858,
      "▁Met": 7859,
      "ais": 7860,
      "forman": 7861,
      "▁Europe": 7862,
      "▁40": 7863,
      "▁F.": 7864,
      "▁poss": 7865,
      "▁emp": 7866,
      "▁Tiongkok": 7867,
      "▁stand": 7868,
      "ille": 7869,
      "▁perform": 7870,
      "enteri": 7871,
      "itary": 7872,
      "▁period": 7873,
      "on,": 7874,
      "▁best": 7875,
      "▁Robert": 7876,
      "▁Tel": 7877,
      "▁hit": 7878,
      "▁Ear": 7879,
      "tt": 7880,
      "▁version": 7881,
      "▁Em": 7882,
      "▁species": 7883,
      "▁iss": 7884,
      "enting": 7885,
      "ached": 7886,
      "▁list": 7887,
      "▁There": 7888,
      "ily": 7889,
      "8)": 7890,
      "urther": 7891,
      "▁right": 7892,
      "▁D.": 7893,
      "adio": 7894,
      "▁setiap": 7895,
      "5.": 7896,
      "abung": 7897,
      "8,": 7898,
      "▁Agust": 7899,
      "▁Tengah": 7900,
      "▁built": 7901,
      "aian": 7902,
      "▁even": 7903,
      "tra": 7904,
      "▁pun": 7905,
      "5)": 7906,
      "iven": 7907,
      "ah,": 7908,
      "▁sering": 7909,
      "▁sold": 7910,
      "ander": 7911,
      "▁rest": 7912,
      "ta": 7913,
      "adang": 7914,
      "0-": 7915,
      "itional": 7916,
      "▁style": 7917,
      "▁lay": 7918,
      "▁Maret": 7919,
      "▁pat": 7920,
      "▁dist": 7921,
      "▁kur": 7922,
      "▁Port": 7923,
      "▁2002": 7924,
      "▁those": 7925,
      "▁late": 7926,
      "usus": 7927,
      "▁Dep": 7928,
      "▁tinggi": 7929,
      "▁prom": 7930,
      "hem": 7931,
      "ipp": 7932,
      "▁Sk": 7933,
      "▁Mil": 7934,
      "▁Life": 7935,
      "▁Krist": 7936,
      "▁sol": 7937,
      "arga": 7938,
      "▁prim": 7939,
      "▁Desember": 7940,
      "ekerja": 7941,
      "▁Januari": 7942,
      "ino": 7943,
      "▁storm": 7944,
      "uel": 7945,
      "ael": 7946,
      "▁still": 7947,
      "▁sw": 7948,
      "▁very": 7949,
      "▁31": 7950,
      "er.": 7951,
      "gn": 7952,
      "▁members": 7953,
      "▁Co": 7954,
      "▁makan": 7955,
      "ectr": 7956,
      "▁effect": 7957,
      "▁Dew": 7958,
      "▁sit": 7959,
      "▁view": 7960,
      "▁way": 7961,
      "▁sebagian": 7962,
      "uatan": 7963,
      "▁exc": 7964,
      "▁ini.": 7965,
      "▁Fl": 7966,
      "ibat": 7967,
      "uta": 7968,
      "▁next": 7969,
      "▁studi": 7970,
      "▁child": 7971,
      "▁berhasil": 7972,
      "isan": 7973,
      "▁town": 7974,
      "ampions": 7975,
      "▁although": 7976,
      "itab": 7977,
      "▁memberikan": 7978,
      "▁Batt": 7979,
      "ument": 7980,
      "▁February": 7981,
      "▁cer": 7982,
      "▁1999": 7983,
      "▁within": 7984,
      "▁water": 7985,
      "arm": 7986,
      "▁Mah": 7987,
      "aksi": 7988,
      "omet": 7989,
      "ards": 7990,
      "7,": 7991,
      "▁One": 7992,
      "▁present": 7993,
      "▁bentuk": 7994,
      "▁prob": 7995,
      "▁High": 7996,
      "▁Paul": 7997,
      "7)": 7998,
      "aupun": 7999,
      "roy": 8000,
      "▁pet": 8001,
      "▁former": 8002,
      "▁av": 8003,
      "▁English": 8004,
      "▁debut": 8005,
      "tif": 8006,
      "atic": 8007,
      "truction": 8008,
      "estern": 8009,
      "▁You": 8010,
      "▁Nasional": 8011,
      "ograf": 8012,
      "ady": 8013,
      "as,": 8014,
      "omen": 8015,
      "▁estab": 8016,
      "▁repl": 8017,
      "ahari": 8018,
      "olik": 8019,
      "▁nov": 8020,
      "▁San": 8021,
      "▁Bal": 8022,
      "▁England": 8023,
      "ministr": 8024,
      "▁188": 8025,
      "ender": 8026,
      "4)": 8027,
      "▁Reg": 8028,
      "▁sekolah": 8029,
      "▁Perang": 8030,
      "une": 8031,
      "▁init": 8032,
      "8.": 8033,
      "ience": 8034,
      "▁Jack": 8035,
      "edia": 8036,
      "ices": 8037,
      "▁industr": 8038,
      "▁Rich": 8039,
      "ane": 8040,
      "▁Kon": 8041,
      "ulu": 8042,
      "▁held": 8043,
      "▁refer": 8044,
      "ittle": 8045,
      "▁Art": 8046,
      "▁Sem": 8047,
      "▁came": 8048,
      "6)": 8049,
      "angsa": 8050,
      "▁gl": 8051,
      "▁Roy": 8052,
      "▁tumb": 8053,
      "▁lok": 8054,
      "▁berikut": 8055,
      "▁caus": 8056,
      "▁days": 8057,
      "▁great": 8058,
      "ape": 8059,
      "▁dic": 8060,
      "▁Da": 8061,
      "▁conv": 8062,
      "▁auth": 8063,
      "▁TV": 8064,
      "▁sesu": 8065,
      "alur": 8066,
      "▁Lat": 8067,
      "arat": 8068,
      "abel": 8069,
      "entukan": 8070,
      "▁Ol": 8071,
      "ajar": 8072,
      "in,": 8073,
      "ransp": 8074,
      "▁perempuan": 8075,
      "eles": 8076,
      "▁masuk": 8077,
      "▁Mor": 8078,
      "get": 8079,
      "▁King": 8080,
      "ve": 8081,
      "antai": 8082,
      "▁Agustus": 8083,
      "▁Sm": 8084,
      "ots": 8085,
      "▁level": 8086,
      "atalog": 8087,
      "▁Im": 8088,
      "ke": 8089,
      "al,": 8090,
      "2)": 8091,
      "▁Rev": 8092,
      "▁however": 8093,
      "▁mengen": 8094,
      "▁Arab": 8095,
      "▁release": 8096,
      "▁ilmiah": 8097,
      "▁planet": 8098,
      "▁memen": 8099,
      "▁Acc": 8100,
      "atch": 8101,
      "▁few": 8102,
      "▁fre": 8103,
      "▁David": 8104,
      "▁real": 8105,
      "erasi": 8106,
      "ilihan": 8107,
      "▁tw": 8108,
      "▁ide": 8109,
      "▁With": 8110,
      "▁continued": 8111,
      "ened": 8112,
      "▁Kes": 8113,
      "irl": 8114,
      "▁George": 8115,
      "inning": 8116,
      "▁performan": 8117,
      "▁Juni": 8118,
      "▁laut": 8119,
      "osial": 8120,
      "▁arm": 8121,
      "▁L.": 8122,
      "AR": 8123,
      "▁Fr": 8124,
      "▁side": 8125,
      "7.": 8126,
      "ropical": 8127,
      "▁tub": 8128,
      "anti": 8129,
      "▁vol": 8130,
      "▁Barat": 8131,
      "▁Nic": 8132,
      "▁similar": 8133,
      "utrad": 8134,
      "▁role": 8135,
      "thers": 8136,
      "ture": 8137,
      "uf": 8138,
      "ength": 8139,
      "▁La": 8140,
      "▁politik": 8141,
      ".)": 8142,
      "uz": 8143,
      "ests": 8144,
      "▁typ": 8145,
      "▁Lalat": 8146,
      "23": 8147,
      "▁Pemain": 8148,
      "lim": 8149,
      "▁ben": 8150,
      "▁Dip": 8151,
      "▁Raja": 8152,
      "▁Bat": 8153,
      "▁Pet": 8154,
      "▁history": 8155,
      "▁kont": 8156,
      "ukup": 8157,
      "▁Juli": 8158,
      "umi": 8159,
      "aruh": 8160,
      "craft": 8161,
      "▁Put": 8162,
      "▁Pel": 8163,
      "▁Republik": 8164,
      "▁penj": 8165,
      "▁General": 8166,
      "▁you": 8167,
      "▁equ": 8168,
      "▁bal": 8169,
      "▁dirilis": 8170,
      "▁lap": 8171,
      "ours": 8172,
      "▁pemerintahan": 8173,
      "▁bus": 8174,
      "▁wind": 8175,
      "▁IS": 8176,
      "eman": 8177,
      "amanya": 8178,
      "irc": 8179,
      "ektur": 8180,
      "ah.": 8181,
      "co": 8182,
      "omor": 8183,
      "▁Dir": 8184,
      "ulang": 8185,
      "▁Angk": 8186,
      "aster": 8187,
      "▁match": 8188,
      "▁expl": 8189,
      "▁Menteri": 8190,
      "2.": 8191,
      "is.": 8192,
      "▁ditemukan": 8193,
      "ivid": 8194,
      "▁jenis": 8195,
      "uit": 8196,
      "▁considered": 8197,
      "tract": 8198,
      "elit": 8199,
      "osed": 8200,
      "▁sal": 8201,
      "orts": 8202,
      "▁Lar": 8203,
      "▁U.S.": 8204,
      "▁among": 8205,
      "▁Hol": 8206,
      "▁ne": 8207,
      "▁exper": 8208,
      "▁often": 8209,
      "pite": 8210,
      "uncul": 8211,
      "5,": 8212,
      "ead": 8213,
      "ar.": 8214,
      "ison": 8215,
      "60": 8216,
      "uv": 8217,
      "▁cover": 8218,
      "▁dest": 8219,
      "oleh": 8220,
      "▁without": 8221,
      "ila": 8222,
      "ber": 8223,
      "ukung": 8224,
      "ira": 8225,
      "▁East": 8226,
      "▁Ba": 8227,
      "udul": 8228,
      "▁half": 8229,
      "▁Mart": 8230,
      "▁beh": 8231,
      "▁akhirnya": 8232,
      "▁Hen": 8233,
      "▁Don": 8234,
      "oto": 8235,
      "api": 8236,
      "▁To": 8237,
      "▁Asia": 8238,
      "▁i": 8239,
      "▁187": 8240,
      "▁Wil": 8241,
      "▁take": 8242,
      "▁win": 8243,
      "-19": 8244,
      "2,": 8245,
      "10": 8246,
      "▁law": 8247,
      "▁cukup": 8248,
      "▁career": 8249,
      "▁appro": 8250,
      "▁Ked": 8251,
      "urrican": 8252,
      "iman": 8253,
      "▁claim": 8254,
      "▁neg": 8255,
      "▁terakhir": 8256,
      "embangan": 8257,
      "abase": 8258,
      "ujuan": 8259,
      "▁No.": 8260,
      "hern": 8261,
      "▁every": 8262,
      "inggi": 8263,
      "epat": 8264,
      "elt": 8265,
      "▁Mag": 8266,
      "▁Black": 8267,
      "▁further": 8268,
      "▁School": 8269,
      "ilai": 8270,
      "press": 8271,
      "▁moved": 8272,
      "▁different": 8273,
      "antu": 8274,
      "bit": 8275,
      "ean": 8276,
      "▁repres": 8277,
      "▁bermain": 8278,
      "▁Tur": 8279,
      "▁prop": 8280,
      "▁proses": 8281,
      "▁pendidikan": 8282,
      "▁Dis": 8283,
      "side": 8284,
      "▁Album": 8285,
      "▁Gereja": 8286,
      "▁foot": 8287,
      "▁penggun": 8288,
      "▁ident": 8289,
      "▁sebesar": 8290,
      "▁My": 8291,
      "▁sound": 8292,
      "ny": 8293,
      "roduc": 8294,
      "▁Bill": 8295,
      "ground": 8296,
      "▁(A": 8297,
      "ulit": 8298,
      "▁local": 8299,
      "▁berdasarkan": 8300,
      "▁Keb": 8301,
      "30": 8302,
      "IT": 8303,
      "▁Maj": 8304,
      "usun": 8305,
      "FA": 8306,
      "▁commun": 8307,
      "▁mass": 8308,
      "▁player": 8309,
      "war": 8310,
      "▁Ant": 8311,
      "▁bur": 8312,
      "loy": 8313,
      "▁kata": 8314,
      "▁respons": 8315,
      "▁namun": 8316,
      "▁Pat": 8317,
      "▁believ": 8318,
      "1)": 8319,
      "ories": 8320,
      "▁Tahun": 8321,
      "awi": 8322,
      "▁week": 8323,
      "▁Pan": 8324,
      "outhern": 8325,
      "▁Hind": 8326,
      "eel": 8327,
      "▁published": 8328,
      "unjukkan": 8329,
      "ural": 8330,
      "ifikasi": 8331,
      "ams": 8332,
      "off": 8333,
      "▁Sul": 8334,
      "▁Although": 8335,
      "▁cast": 8336,
      "▁road": 8337,
      "▁influ": 8338,
      "ona": 8339,
      "▁(B": 8340,
      "▁empat": 8341,
      "▁Kr": 8342,
      "▁acara": 8343,
      "anita": 8344,
      "arr": 8345,
      "▁History": 8346,
      "▁State": 8347,
      "▁mendapatkan": 8348,
      "list": 8349,
      "oe": 8350,
      "ords": 8351,
      "▁Island": 8352,
      "▁post": 8353,
      "▁lalu": 8354,
      "ik.": 8355,
      "▁sugg": 8356,
      "9,": 8357,
      "▁Michael": 8358,
      "▁Februari": 8359,
      "▁perj": 8360,
      "idupan": 8361,
      "angka": 8362,
      "ilan": 8363,
      "amin": 8364,
      "▁strong": 8365,
      "▁River": 8366,
      "▁written": 8367,
      "▁luas": 8368,
      "oman": 8369,
      "▁Museum": 8370,
      "itch": 8371,
      "▁aff": 8372,
      "▁Jos": 8373,
      "▁pan": 8374,
      "▁mm": 8375,
      "ency": 8376,
      "▁kerus": 8377,
      "4,": 8378,
      "aknya": 8379,
      "▁become": 8380,
      "erd": 8381,
      "4.": 8382,
      "-h": 8383,
      "▁keluarga": 8384,
      "▁pasukan": 8385,
      "▁west": 8386,
      "▁Off": 8387,
      "▁Qu": 8388,
      "ments": 8389,
      "▁Up": 8390,
      "▁!": 8391,
      "▁having": 8392,
      "▁Fir": 8393,
      "▁say": 8394,
      "▁kelompok": 8395,
      "▁Belanda": 8396,
      "▁perb": 8397,
      "orr": 8398,
      "ems": 8399,
      "▁Jakarta": 8400,
      "utes": 8401,
      "▁lost": 8402,
      "▁Mereka": 8403,
      "intang": 8404,
      "▁production": 8405,
      "BC": 8406,
      "aint": 8407,
      "▁novel": 8408,
      "▁Sov": 8409,
      "▁lat": 8410,
      "awasan": 8411,
      "ying": 8412,
      "ailed": 8413,
      "6,": 8414,
      "uskan": 8415,
      "▁(198": 8416,
      "▁vict": 8417,
      "▁Bahasa": 8418,
      "hi": 8419,
      "▁low": 8420,
      "▁company": 8421,
      "▁Sl": 8422,
      "upa": 8423,
      "▁Presiden": 8424,
      "▁menyatakan": 8425,
      "ampung": 8426,
      "▁dekat": 8427,
      "▁muncul": 8428,
      "▁less": 8429,
      "▁tro": 8430,
      "aba": 8431,
      "▁involv": 8432,
      "▁bin": 8433,
      "▁lahir": 8434,
      "▁comb": 8435,
      "▁mencapai": 8436,
      "▁gave": 8437,
      "▁186": 8438,
      "▁(M": 8439,
      "▁bidang": 8440,
      "▁obs": 8441,
      "ric": 8442,
      "▁khusus": 8443,
      "▁nasional": 8444,
      "▁didirikan": 8445,
      "▁east": 8446,
      "▁kapal": 8447,
      "lear": 8448,
      "▁mot": 8449,
      "iness": 8450,
      "▁Sekolah": 8451,
      "asilkan": 8452,
      "▁military": 8453,
      "▁individ": 8454,
      "lege": 8455,
      "▁position": 8456,
      "▁pemerintah": 8457,
      "urricane": 8458,
      "▁bekerja": 8459,
      "ize": 8460,
      "osi": 8461,
      "▁Mak": 8462,
      "▁country": 8463,
      "▁2012.": 8464,
      "epend": 8465,
      "work": 8466,
      "ema": 8467,
      "adian": 8468,
      "▁import": 8469,
      "▁Do": 8470,
      "▁maupun": 8471,
      "▁Bi": 8472,
      "▁While": 8473,
      "3,": 8474,
      "▁Ben": 8475,
      "arian": 8476,
      "▁Soviet": 8477,
      "▁soc": 8478,
      "andingan": 8479,
      "▁Vir": 8480,
      "▁Mac": 8481,
      "▁Thom": 8482,
      "▁join": 8483,
      "▁Unt": 8484,
      "▁Music": 8485,
      "▁(K": 8486,
      "olution": 8487,
      "ikuti": 8488,
      "s,": 8489,
      "▁press": 8490,
      "▁Coleop": 8491,
      "anted": 8492,
      "▁chang": 8493,
      "▁hasil": 8494,
      "▁dibuat": 8495,
      "uted": 8496,
      "▁Partai": 8497,
      "▁kol": 8498,
      "▁Miss": 8499,
      "astern": 8500,
      "▁control": 8501,
      "6.": 8502,
      "ransport": 8503,
      "▁Gro": 8504,
      "▁surv": 8505,
      "▁never": 8506,
      "▁Bis": 8507,
      "abak": 8508,
      "atat": 8509,
      "usk": 8510,
      "ili": 8511,
      "odes": 8512,
      "ainan": 8513,
      "aid": 8514,
      "▁(b": 8515,
      "am,": 8516,
      "ensive": 8517,
      "adan": 8518,
      "wood": 8519,
      "▁produced": 8520,
      "▁returned": 8521,
      "▁Katolik": 8522,
      "ugas": 8523,
      "▁went": 8524,
      "iment": 8525,
      "▁Alb": 8526,
      "1,": 8527,
      "▁need": 8528,
      "▁A.": 8529,
      "▁perd": 8530,
      "▁eks": 8531,
      "▁Mo": 8532,
      "▁mater": 8533,
      "nis": 8534,
      "9)": 8535,
      "▁Bur": 8536,
      "IN": 8537,
      "▁Red": 8538,
      "uanya": 8539,
      "▁recorded": 8540,
      "▁official": 8541,
      "▁reported": 8542,
      "▁camp": 8543,
      "▁eight": 8544,
      "▁kerusakan": 8545,
      "▁grup": 8546,
      "burg": 8547,
      "9.": 8548,
      "▁(T": 8549,
      "▁media": 8550,
      "▁sejarah": 8551,
      "▁ft": 8552,
      "▁Union": 8553,
      "▁France": 8554,
      "▁Mat": 8555,
      "iala": 8556,
      "ak,": 8557,
      "aranya": 8558,
      "▁Tan": 8559,
      "roduksi": 8560,
      "al.": 8561,
      "▁perg": 8562,
      "▁ist": 8563,
      "-orang": 8564,
      "ihan": 8565,
      "▁dianggap": 8566,
      "en.": 8567,
      "ume": 8568,
      "asti": 8569,
      "eck": 8570,
      "▁Namun,": 8571,
      "akses": 8572,
      "▁stated": 8573,
      "stant": 8574,
      "ivil": 8575,
      "▁IT": 8576,
      "▁penc": 8577,
      "▁suara": 8578,
      "▁announ": 8579,
      "▁popular": 8580,
      "ampionship": 8581,
      "▁According": 8582,
      "AS": 8583,
      "▁Alex": 8584,
      "▁service": 8585,
      "▁Grand": 8586,
      "us.": 8587,
      "▁particular": 8588,
      "arik": 8589,
      "▁friend": 8590,
      "▁sum": 8591,
      "▁author": 8592,
      "gin": 8593,
      "▁tekn": 8594,
      "▁Cap": 8595,
      "erson": 8596,
      "▁langsung": 8597,
      "▁2020": 8598,
      "▁given": 8599,
      "rasi": 8600,
      "▁Pag": 8601,
      "▁Army": 8602,
      "▁find": 8603,
      "▁agama": 8604,
      "▁model": 8605,
      "▁Raya": 8606,
      "▁fact": 8607,
      "▁tanpa": 8608,
      "egi": 8609,
      "▁Sim": 8610,
      "▁histor": 8611,
      "▁S.": 8612,
      "▁Situs": 8613,
      "▁League": 8614,
      "ago": 8615,
      "ined": 8616,
      "▁Mark": 8617,
      "earch": 8618,
      "▁should": 8619,
      "▁good": 8620,
      "▁Wal": 8621,
      "▁common": 8622,
      "▁pusat": 8623,
      "▁tand": 8624,
      "▁Eropa": 8625,
      "edi": 8626,
      "aised": 8627,
      "itud": 8628,
      "▁mob": 8629,
      "▁field": 8630,
      "▁young": 8631,
      "ention": 8632,
      "▁pot": 8633,
      "▁include": 8634,
      "▁light": 8635,
      "3.": 8636,
      "▁forces": 8637,
      "▁III": 8638,
      "▁maka": 8639,
      "antikan": 8640,
      "▁terkenal": 8641,
      "▁mengenai": 8642,
      "▁songs": 8643,
      "▁Press": 8644,
      "ases": 8645,
      "itor": 8646,
      "▁M.": 8647,
      "e.": 8648,
      "alami": 8649,
      "note": 8650,
      "▁lagi": 8651,
      "▁aircraft": 8652,
      "aval": 8653,
      "▁matahari": 8654,
      "▁jalan": 8655,
      "▁America": 8656,
      "abase.": 8657,
      "▁Pas": 8658,
      "▁posisi": 8659,
      "iction": 8660,
      "▁tanah": 8661,
      "BN": 8662,
      "▁Species": 8663,
      "▁(20": 8664,
      "▁compet": 8665,
      "-S": 8666,
      "akin": 8667,
      "▁tinggal": 8668,
      "▁Road": 8669,
      "han": 8670,
      "alth": 8671,
      "▁Best": 8672,
      "▁using": 8673,
      "eksi": 8674,
      "▁Lib": 8675,
      "▁building": 8676,
      "▁destroy": 8677,
      "▁Awards": 8678,
      "posed": 8679,
      "itan": 8680,
      "▁Russ": 8681,
      "▁ke-1": 8682,
      "uti": 8683,
      "agon": 8684,
      "▁fire": 8685,
      "▁Play": 8686,
      "▁ships": 8687,
      "▁development": 8688,
      "▁lim": 8689,
      "▁Royal": 8690,
      "▁Street": 8691,
      "▁Menurut": 8692,
      "▁fac": 8693,
      "atural": 8694,
      "rael": 8695,
      "▁port": 8696,
      "▁how": 8697,
      "▁These": 8698,
      "anyi": 8699,
      "ider": 8700,
      "▁der": 8701,
      "▁Gun": 8702,
      "eption": 8703,
      "ourg": 8704,
      "▁Fil": 8705,
      "▁Beberapa": 8706,
      "▁trav": 8707,
      "adakan": 8708,
      "▁tok": 8709,
      "berg": 8710,
      "▁mungkin": 8711,
      "aring": 8712,
      "enggara": 8713,
      "▁Pulau": 8714,
      "uangan": 8715,
      "▁penting": 8716,
      "▁Japanese": 8717,
      "▁enc": 8718,
      "▁Del": 8719,
      "aikan": 8720,
      "unyai": 8721,
      "▁manusia": 8722,
      "atatan": 8723,
      "▁Mes": 8724,
      "▁menunjukkan": 8725,
      "sequ": 8726,
      "ades": 8727,
      "quad": 8728,
      "▁Wash": 8729,
      "note\"": 8730,
      "▁class=\"note\"": 8731,
      "used": 8732,
      "inj": 8733,
      "▁menjabat": 8734,
      "▁Piala": 8735,
      "▁tersebut,": 8736,
      "1).": 8737,
      "acy": 8738,
      "▁No": 8739,
      "ulkan": 8740,
      "erst": 8741,
      "as.": 8742,
      "ungsi": 8743,
      "▁project": 8744,
      "▁Award": 8745,
      "self": 8746,
      ".R": 8747,
      "thern": 8748,
      "▁Kirk": 8749,
      "ring": 8750,
      "itive": 8751,
      "▁Indian": 8752,
      "kov": 8753,
      "uri": 8754,
      "ampaign": 8755,
      "▁chart": 8756,
      "-r": 8757,
      "▁times": 8758,
      "▁rock": 8759,
      "iny": 8760,
      "▁menerima": 8761,
      "ukaan": 8762,
      "▁making": 8763,
      "▁my": 8764,
      "▁mempunyai": 8765,
      "onomi": 8766,
      "cast": 8767,
      "▁rank": 8768,
      "ows": 8769,
      "▁Richard": 8770,
      "▁administr": 8771,
      "abatan": 8772,
      "▁died": 8773,
      "idence": 8774,
      "▁national": 8775,
      "▁dew": 8776,
      "▁tur": 8777,
      "▁batang": 8778,
      "▁ec": 8779,
      "▁Company": 8780,
      "▁Um": 8781,
      "1.": 8782,
      "▁univers": 8783,
      "▁bukan": 8784,
      "▁Go": 8785,
      "▁Charles": 8786,
      "ably": 8787,
      "▁bo": 8788,
      "▁Atl": 8789,
      "▁Sant": 8790,
      "▁Kap": 8791,
      "iforn": 8792,
      "▁“": 8793,
      "echn": 8794,
      "akter": 8795,
      "acters": 8796,
      "▁island": 8797,
      "▁himself": 8798,
      "▁Nicol": 8799,
      "ned": 8800,
      "▁tour": 8801,
      "▁pred": 8802,
      "▁club": 8803,
      "isah": 8804,
      "da": 8805,
      "▁militer": 8806,
      "uter": 8807,
      "-n": 8808,
      "▁kej": 8809,
      "▁Val": 8810,
      "board": 8811,
      "▁Ev": 8812,
      "▁menik": 8813,
      "▁provinsi": 8814,
      "▁critic": 8815,
      "▁electr": 8816,
      "reen": 8817,
      "iety": 8818,
      "▁command": 8819,
      "▁hak": 8820,
      "ora": 8821,
      "▁log": 8822,
      "lus": 8823,
      "▁father": 8824,
      "▁suff": 8825,
      "▁500": 8826,
      "▁terc": 8827,
      "akyat": 8828,
      "uju": 8829,
      "estival": 8830,
      "▁sat": 8831,
      "▁Lou": 8832,
      "unuh": 8833,
      "▁Peny": 8834,
      "ns": 8835,
      "che": 8836,
      "▁Pri": 8837,
      "▁Coleoptera,": 8838,
      "apt": 8839,
      "▁remained": 8840,
      "▁diber": 8841,
      "ft": 8842,
      "▁melawan": 8843,
      "ho": 8844,
      "▁fem": 8845,
      "▁gelar": 8846,
      "▁title": 8847,
      "utama": 8848,
      "▁agar": 8849,
      "▁get": 8850,
      "▁Read": 8851,
      "▁fav": 8852,
      "▁tubuh": 8853,
      "arier": 8854,
      "▁House": 8855,
      "▁Com": 8856,
      "▁Gold": 8857,
      "▁selatan": 8858,
      "▁Californ": 8859,
      "▁Pemerint": 8860,
      "▁Op": 8861,
      "▁ground": 8862,
      "▁rul": 8863,
      "▁Kan": 8864,
      "▁months": 8865,
      "▁jika": 8866,
      "▁Dengan": 8867,
      "lished": 8868,
      "▁Israel": 8869,
      "ways": 8870,
      "▁Angkatan": 8871,
      "▁et": 8872,
      "▁across": 8873,
      "NI": 8874,
      "▁star": 8875,
      "tiv": 8876,
      "rell": 8877,
      "▁site": 8878,
      "oice": 8879,
      "▁sil": 8880,
      "▁mult": 8881,
      "-M": 8882,
      "▁Ne": 8883,
      "▁60": 8884,
      "▁Washington": 8885,
      "ograph": 8886,
      "▁Terb": 8887,
      "▁Muh": 8888,
      "▁Oper": 8889,
      "▁reached": 8890,
      "▁Negara": 8891,
      "inet": 8892,
      "erakan": 8893,
      "▁agre": 8894,
      "▁utara": 8895,
      "am.": 8896,
      "▁sosial": 8897,
      "▁nomin": 8898,
      "▁lama": 8899,
      "▁lingk": 8900,
      "akai": 8901,
      "0)": 8902,
      "ither": 8903,
      "▁Il": 8904,
      "▁klub": 8905,
      "orpor": 8906,
      "▁Malays": 8907,
      "-A": 8908,
      "▁characters": 8909,
      "ourn": 8910,
      "▁force": 8911,
      "▁lemb": 8912,
      "▁sedang": 8913,
      "▁orang-orang": 8914,
      "enang": 8915,
      "ifat": 8916,
      "itted": 8917,
      "istrik": 8918,
      "▁berubah": 8919,
      "alis": 8920,
      "urahan": 8921,
      "uce": 8922,
      "▁kereta": 8923,
      "etahui": 8924,
      "▁invest": 8925,
      "▁Untuk": 8926,
      "▁sebelumnya": 8927,
      "▁killed": 8928,
      "eland": 8929,
      "▁hukum": 8930,
      "▁Ob": 8931,
      "▁Yunan": 8932,
      "-m": 8933,
      "▁(p": 8934,
      "▁Ma": 8935,
      "▁Thomas": 8936,
      "most": 8937,
      "▁fight": 8938,
      "▁Frank": 8939,
      "uki": 8940,
      "ycl": 8941,
      "▁er": 8942,
      "iff": 8943,
      "▁suku": 8944,
      "▁hubungan": 8945,
      "▁anim": 8946,
      "▁Bay": 8947,
      "–19": 8948,
      "▁energ": 8949,
      "▁Pang": 8950,
      "▁ditulis": 8951,
      "ung,": 8952,
      "▁J.": 8953,
      "▁developed": 8954,
      "field": 8955,
      "▁cond": 8956,
      "▁ur": 8957,
      "▁son": 8958,
      "▁help": 8959,
      "▁felt": 8960,
      "▁buku": 8961,
      "aih": 8962,
      "▁Day": 8963,
      "rat": 8964,
      "arch": 8965,
      "▁Roman": 8966,
      "uff": 8967,
      "ances": 8968,
      "▁performance": 8969,
      "▁Allah": 8970,
      "▁\"T": 8971,
      "▁let": 8972,
      "uis": 8973,
      "upan": 8974,
      "▁Inf": 8975,
      "▁tingkat": 8976,
      "ian,": 8977,
      "▁Star": 8978,
      "▁areas": 8979,
      "▁Mod": 8980,
      "ebor": 8981,
      "arai": 8982,
      "▁komun": 8983,
      "▁introduc": 8984,
      "▁Kl": 8985,
      "▁Ep": 8986,
      "▁sekarang": 8987,
      "▁Liga": 8988,
      "day": 8989,
      "asy": 8990,
      "▁cop": 8991,
      "▁away": 8992,
      "▁Larva": 8993,
      "▁Trans": 8994,
      "▁television": 8995,
      "▁But": 8996,
      "▁represent": 8997,
      "▁Love": 8998,
      "▁Tom": 8999,
      "▁mengalami": 9000,
      "▁relations": 9001,
      "asing": 9002,
      "▁Check": 9003,
      "▁Sun": 9004,
      "▁Bail": 9005,
      "▁ibu": 9006,
      "ae.": 9007,
      "▁Dewan": 9008,
      "▁seven": 9009,
      "▁Division": 9010,
      "▁noted": 9011,
      "▁night": 9012,
      "vert": 9013,
      "▁black": 9014,
      "▁Cont": 9015,
      "▁Peter": 9016,
      "▁pulau": 9017,
      "ing-": 9018,
      "▁dasar": 9019,
      "▁rend": 9020,
      "▁pesawat": 9021,
      "▁barat": 9022,
      "▁lang": 9023,
      "akar": 9024,
      "▁Annual": 9025,
      "▁round": 9026,
      "▁timur": 9027,
      "▁circ": 9028,
      "▁too": 9029,
      "▁cult": 9030,
      "hys": 9031,
      "▁Ini": 9032,
      "▁mis": 9033,
      "▁Prof": 9034,
      "▁Henry": 9035,
      "▁(k": 9036,
      "▁unit": 9037,
      "▁Diakses": 9038,
      "▁pengg": 9039,
      "xt": 9040,
      "auh": 9041,
      "▁periode": 9042,
      "▁Tak": 9043,
      "▁arch": 9044,
      "▁distr": 9045,
      "ecut": 9046,
      "▁Enter": 9047,
      "▁Mary": 9048,
      "▁front": 9049,
      "▁station": 9050,
      "▁cara": 9051,
      "▁tanduk": 9052,
      "iw": 9053,
      "▁Brig": 9054,
      "▁throughout": 9055,
      "▁Leg": 9056,
      "▁mid": 9057,
      "▁successful": 9058,
      "▁ball": 9059,
      "▁cost": 9060,
      "iec": 9061,
      "ihak": 9062,
      "▁bahan": 9063,
      "ched": 9064,
      "▁Flor": 9065,
      "▁magn": 9066,
      "▁Australian": 9067,
      "▁Sulaw": 9068,
      "▁Christian": 9069,
      "▁Bourg": 9070,
      "▁memenangkan": 9071,
      "▁St.": 9072,
      "▁menulis": 9073,
      "ogn": 9074,
      "▁Checklist": 9075,
      "elling": 9076,
      "▁aver": 9077,
      "atalogue": 9078,
      "▁players": 9079,
      "sel": 9080,
      "▁depart": 9081,
      "▁rek": 9082,
      "ociation": 9083,
      "▁served": 9084,
      "ization": 9085,
      "▁seen": 9086,
      "ificant": 9087,
      "▁various": 9088,
      "▁arg": 9089,
      "▁mur": 9090,
      "▁Rusia": 9091,
      "▁wanita": 9092,
      "▁samp": 9093,
      "▁’": 9094,
      "▁Hot": 9095,
      "▁house": 9096,
      "jo": 9097,
      "▁Sungai": 9098,
      "▁God": 9099,
      "▁diteb": 9100,
      "E.,": 9101,
      "▁nor": 9102,
      "▁Kerajaan": 9103,
      "ze": 9104,
      "ado": 9105,
      "▁full": 9106,
      "▁award": 9107,
      "de": 9108,
      "▁Saat": 9109,
      "eration": 9110,
      "▁hous": 9111,
      "aves": 9112,
      "elahiran": 9113,
      "aria": 9114,
      "ift": 9115,
      "▁kaki": 9116,
      "▁created": 9117,
      "▁radio": 9118,
      "▁see": 9119,
      "view": 9120,
      "arn": 9121,
      "▁yak": 9122,
      "isl": 9123,
      "▁juta": 9124,
      "▁political": 9125,
      "▁belak": 9126,
      "adikan": 9127,
      "▁ISBN": 9128,
      "arti": 9129,
      "▁Tav": 9130,
      "▁saw": 9131,
      "▁cal": 9132,
      "▁Kepala": 9133,
      "▁Viet": 9134,
      "▁curr": 9135,
      "uluh": 9136,
      "▁Mill": 9137,
      "▁mereka.": 9138,
      "▁battle": 9139,
      "▁Penghargaan": 9140,
      "▁thought": 9141,
      "urunan": 9142,
      "gen": 9143,
      "ografi": 9144,
      "▁insp": 9145,
      "▁Hall": 9146,
      "icult": 9147,
      "rard": 9148,
      "▁meningkat": 9149,
      "ye": 9150,
      "▁kepala": 9151,
      "imately": 9152,
      "▁Den": 9153,
      "AN:": 9154,
      "ves": 9155,
      "fa": 9156,
      "eated": 9157,
      "▁established": 9158,
      "ipal": 9159,
      "▁Great": 9160,
      "uktur": 9161,
      "▁api": 9162,
      "▁Virgin": 9163,
      "40": 9164,
      "ges": 9165,
      "ological": 9166,
      "▁drama": 9167,
      "A.,": 9168,
      "▁earli": 9169,
      "ertain": 9170,
      "head": 9171,
      "▁muda": 9172,
      "▁sus": 9173,
      "▁meet": 9174,
      "▁2000:": 9175,
      "▁Sol": 9176,
      "ending": 9177,
      "▁kurang": 9178,
      "aging": 9179,
      "▁(2011).": 9180,
      "aham": 9181,
      "▁special": 9182,
      "▁bergabung": 9183,
      "▁Ud": 9184,
      "mb": 9185,
      "▁data": 9186,
      "▁Hill": 9187,
      "▁database.": 9188,
      "ects": 9189,
      "▁route": 9190,
      "▁taken": 9191,
      "ki": 9192,
      "▁mengebor": 9193,
      "▁ditebang.": 9194,
      "▁TIT": 9195,
      "▁Song": 9196,
      "▁little": 9197,
      "▁versi": 9198,
      "vers": 9199,
      "▁Cerambycidae": 9200,
      "ubahan": 9201,
      "tic": 9202,
      "▁penulis": 9203,
      "▁Catalogue": 9204,
      "ka": 9205,
      "▁followed": 9206,
      "akilian": 9207,
      "▁Cerambycidae.": 9208,
      "mar": 9209,
      "iron": 9210,
      "▁Sil": 9211,
      "ography": 9212,
      "▁Tavakilian": 9213,
      "▁TITAN:": 9214,
      "enced": 9215,
      "▁campaign": 9216,
      "embangkan": 9217,
      "▁mes": 9218,
      "▁announced": 9219,
      "▁Pak": 9220,
      "▁First": 9221,
      "▁D.,": 9222,
      "▁185": 9223,
      "▁age": 9224,
      "aces": 9225,
      "▁ayah": 9226,
      "kr": 9227,
      "▁AS": 9228,
      "▁°": 9229,
      "umen": 9230,
      "▁Stasiun": 9231,
      "▁Kong": 9232,
      "▁writing": 9233,
      "▁ketiga": 9234,
      "▁Atlant": 9235,
      "▁Rock": 9236,
      "less": 9237,
      "▁population": 9238,
      "ought": 9239,
      "aha": 9240,
      "ged": 9241,
      "▁significant": 9242,
      "▁children": 9243,
      "▁Poland": 9244,
      "▁yakni": 9245,
      "▁lo": 9246,
      "▁Life:": 9247,
      "▁Instit": 9248,
      "▁T.,": 9249,
      "iers": 9250,
      "ald": 9251,
      "▁sejumlah": 9252,
      "▁status": 9253,
      "▁Baill": 9254,
      "▁struc": 9255,
      "▁anti": 9256,
      "▁(red": 9257,
      "▁Nicolson": 9258,
      "aum": 9259,
      "▁N.,": 9260,
      "▁able": 9261,
      "▁observ": 9262,
      "embang": 9263,
      "▁examp": 9264,
      "▁membentuk": 9265,
      "▁Studi": 9266,
      "▁udara": 9267,
      "▁ITIS": 9268,
      "▁Ketua": 9269,
      "▁process": 9270,
      "▁batu": 9271,
      "▁cross": 9272,
      "▁started": 9273,
      "▁Fed": 9274,
      "▁sumber": 9275,
      "▁Reading,": 9276,
      "▁bomb": 9277,
      "▁Mont": 9278,
      "▁Vol": 9279,
      "za": 9280,
      "ela": 9281,
      "▁mengambil": 9282,
      "▁internasional": 9283,
      ".R.,": 9284,
      "reg": 9285,
      "▁miles": 9286,
      "nam": 9287,
      "oran": 9288,
      "▁broad": 9289,
      "▁Bourgoin": 9290,
      "▁terutama": 9291,
      "▁(red.)": 9292,
      "▁Checklist.": 9293,
      "▁Publ": 9294,
      "▁kil": 9295,
      "aper": 9296,
      "▁Ouv": 9297,
      "▁Bailly": 9298,
      "▁material": 9299,
      "▁Bisby": 9300,
      "▁Orrell": 9301,
      "▁Paglin": 9302,
      "argeon": 9303,
      "▁Paglinawan": 9304,
      "▁Baillargeon": 9305,
      "▁T.M.,": 9306,
      "▁Ouvrard": 9307,
      "▁Roskov": 9308,
      "anger": 9309,
      "▁Y.R.,": 9310,
      "▁L.E.,": 9311,
      "▁P.M.,": 9312,
      "▁F.A.,": 9313,
      "ampilkan": 9314,
      "amat": 9315,
      "▁performed": 9316,
      "▁grow": 9317,
      "ridge": 9318,
      "▁Sulawesi": 9319,
      "TV": 9320,
      "▁Coun": 9321,
      "ators": 9322,
      "▁Abd": 9323,
      "enj": 9324,
      "azine": 9325,
      "eam": 9326,
      "to": 9327,
      "▁Ul": 9328,
      "▁2009.": 9329,
      "▁body": 9330,
      "▁Bank": 9331,
      "▁budaya": 9332,
      "oo": 9333,
      "▁Ace": 9334,
      "▁Program": 9335,
      "▁Vict": 9336,
      "▁look": 9337,
      "48": 9338,
      "egiatan": 9339,
      "▁doc": 9340,
      "▁women": 9341,
      "enderal": 9342,
      "ells": 9343,
      "▁caused": 9344,
      "▁read": 9345,
      "-B": 9346,
      "▁35": 9347,
      "▁putra": 9348,
      "C.": 9349,
      "▁mengatakan": 9350,
      "omes": 9351,
      "etak": 9352,
      "aksan": 9353,
      "–1": 9354,
      "▁2021": 9355,
      "▁Pendidikan": 9356,
      "▁conn": 9357,
      "adaan": 9358,
      "▁dimulai": 9359,
      "▁Seperti": 9360,
      "▁H.": 9361,
      "str": 9362,
      "▁does": 9363,
      "▁1998": 9364,
      "roll": 9365,
      "▁1.": 9366,
      "▁Depart": 9367,
      "▁tropical": 9368,
      "PR": 9369,
      "▁bas": 9370,
      "site": 9371,
      "jid": 9372,
      "ekerj": 9373,
      "▁R.": 9374,
      "▁Dari": 9375,
      "▁Kim": 9376,
      "▁coast": 9377,
      "▁Us": 9378,
      "ampu": 9379,
      "▁activ": 9380,
      "itz": 9381,
      "▁stage": 9382,
      "iring": 9383,
      "▁Laut": 9384,
      "▁berarti": 9385,
      "▁Cour": 9386,
      "▁dev": 9387,
      "enes": 9388,
      "hire": 9389,
      "tri": 9390,
      "▁Az": 9391,
      "▁esc": 9392,
      "▁Cons": 9393,
      "anjian": 9394,
      "▁others": 9395,
      "ampir": 9396,
      "ak.": 9397,
      "anyol": 9398,
      "▁studio": 9399,
      "▁host": 9400,
      "ing-mas": 9401,
      "▁Boy": 9402,
      "ety": 9403,
      "alaman": 9404,
      "▁Yah": 9405,
      "▁Ist": 9406,
      "aki-l": 9407,
      "atasan": 9408,
      "▁Game": 9409,
      "hest": 9410,
      "▁Os": 9411,
      "icle": 9412,
      "▁situ": 9413,
      "▁lik": 9414,
      "▁Plan": 9415,
      "▁appeared": 9416,
      "▁jalur": 9417,
      "▁mix": 9418,
      "▁located": 9419,
      "adr": 9420,
      "80": 9421,
      "encana": 9422,
      "gress": 9423,
      "ehatan": 9424,
      "ico": 9425,
      "▁tah": 9426,
      "▁terbesar": 9427,
      "▁itu.": 9428,
      "▁lainnya.": 9429,
      "▁Dar": 9430,
      "▁inj": 9431,
      "empuran": 9432,
      "▁mount": 9433,
      "onia": 9434,
      "gether": 9435,
      "▁range": 9436,
      "sy": 9437,
      "▁together": 9438,
      "ikit": 9439,
      "isted": 9440,
      "inya.": 9441,
      "▁important": 9442,
      "▁pertandingan": 9443,
      "▁menghasilkan": 9444,
      "umumkan": 9445,
      "▁Karena": 9446,
      "▁prod": 9447,
      "▁Los": 9448,
      "25": 9449,
      "▁sett": 9450,
      "▁Brown": 9451,
      "▁menurut": 9452,
      "▁live": 9453,
      "▁region": 9454,
      "onn": 9455,
      "▁(C": 9456,
      "▁Church": 9457,
      "▁hon": 9458,
      "▁plat": 9459,
      "▁improv": 9460,
      "aps": 9461,
      "▁ris": 9462,
      "▁UK.": 9463,
      "ainkan": 9464,
      "▁cut": 9465,
      "▁berjudul": 9466,
      "▁perang": 9467,
      "▁produksi": 9468,
      "on.": 9469,
      "imes": 9470,
      "▁vir": 9471,
      "▁addition": 9472,
      "▁construction": 9473,
      "▁fle": 9474,
      "edy": 9475,
      "▁lalat": 9476,
      "back": 9477,
      "▁white": 9478,
      "cil": 9479,
      "▁memulai": 9480,
      "▁Si": 9481,
      "alls": 9482,
      "▁decided": 9483,
      "▁completed": 9484,
      "oba": 9485,
      "▁miss": 9486,
      "illa": 9487,
      "▁Kn": 9488,
      "▁instead": 9489,
      "ville": 9490,
      "▁human": 9491,
      "▁kematian": 9492,
      "▁PT": 9493,
      "▁Sebagai": 9494,
      "▁Singap": 9495,
      "▁engine": 9496,
      "▁formed": 9497,
      "▁Bol": 9498,
      "▁(D": 9499,
      "▁Muhamm": 9500,
      "indah": 9501,
      "▁Times": 9502,
      "▁raja": 9503,
      "▁peak": 9504,
      "▁discover": 9505,
      "▁Polit": 9506,
      "▁independ": 9507,
      "irim": 9508,
      "▁feet": 9509,
      "▁tengah": 9510,
      "▁lima": 9511,
      "▁ped": 9512,
      "▁features": 9513,
      "ceed": 9514,
      "▁Din": 9515,
      "▁karakter": 9516,
      "▁hold": 9517,
      "ungk": 9518,
      "▁Law": 9519,
      "▁mi": 9520,
      "iol": 9521,
      "▁Gar": 9522,
      "▁uns": 9523,
      "▁voc": 9524,
      "rik": 9525,
      "bor": 9526,
      "▁mobil": 9527,
      "etwork": 9528,
      "▁Li": 9529,
      "▁crew": 9530,
      "rought": 9531,
      "▁Battle": 9532,
      "▁Green": 9533,
      "▁fig": 9534,
      "ing-masing": 9535,
      "ebula": 9536,
      "▁Britania": 9537,
      "▁Kol": 9538,
      "▁California": 9539,
      "▁(m": 9540,
      "▁Bul": 9541,
      "▁terus": 9542,
      "▁belum": 9543,
      "▁opened": 9544,
      "▁situs": 9545,
      "▁China": 9546,
      "istan": 9547,
      "▁Ek": 9548,
      "uhkan": 9549,
      "▁Mount": 9550,
      "▁born": 9551,
      "▁diberikan": 9552,
      "▁scr": 9553,
      "lahr": 9554,
      "ubern": 9555,
      "▁Ketika": 9556,
      "r.": 9557,
      "▁heavy": 9558,
      "▁eventually": 9559,
      "▁dibangun": 9560,
      "▁ask": 9561,
      "ears": 9562,
      "read": 9563,
      "▁Int": 9564,
      "▁(197": 9565,
      "▁laki-l": 9566,
      "antor": 9567,
      "▁menemukan": 9568,
      "▁simp": 9569,
      "▁ge": 9570,
      "▁points": 9571,
      "▁Cast": 9572,
      "▁reb": 9573,
      "ayed": 9574,
      "▁berbeda": 9575,
      "olf": 9576,
      "me": 9577,
      "▁Es": 9578,
      "▁relig": 9579,
      "yo": 9580,
      "▁From": 9581,
      "▁Group": 9582,
      "▁bis": 9583,
      "▁College": 9584,
      "▁70": 9585,
      "▁tumbuhan": 9586,
      "in.": 9587,
      "▁menikah": 9588,
      "▁probl": 9589,
      "asi,": 9590,
      "-an": 9591,
      "ulauan": 9592,
      "unction": 9593,
      "▁Final": 9594,
      "▁break": 9595,
      "▁Sir": 9596,
      "▁produk": 9597,
      "▁Ah": 9598,
      "▁Aceh": 9599,
      "▁sebelah": 9600,
      "uw": 9601,
      "ukuran": 9602,
      "ambahan": 9603,
      "▁playing": 9604,
      "etisi": 9605,
      "ilangan": 9606,
      "▁stasiun": 9607,
      "▁dun": 9608,
      "ality": 9609,
      "bon": 9610,
      "▁Rh": 9611,
      "ishing": 9612,
      "hester": 9613,
      "▁Mari": 9614,
      "▁1990": 9615,
      "▁added": 9616,
      "▁sedangkan": 9617,
      "ager": 9618,
      "▁President": 9619,
      "▁2022": 9620,
      "ights": 9621,
      "▁Spanyol": 9622,
      "▁80": 9623,
      "aph": 9624,
      "▁Stev": 9625,
      "▁Angg": 9626,
      "▁dok": 9627,
      "▁Carl": 9628,
      "▁Pes": 9629,
      "▁Agung": 9630,
      "▁Udara": 9631,
      "ebar": 9632,
      "▁almost": 9633,
      "rison": 9634,
      "▁Mic": 9635,
      "ential": 9636,
      "▁sex": 9637,
      "istic": 9638,
      "▁Sub": 9639,
      "▁action": 9640,
      "ato": 9641,
      "▁difficult": 9642,
      "apa": 9643,
      "▁Some": 9644,
      "▁Para": 9645,
      "igned": 9646,
      "▁lack": 9647,
      "oted": 9648,
      "▁C.": 9649,
      "▁least": 9650,
      "▁past": 9651,
      "aringan": 9652,
      "▁works": 9653,
      "medi": 9654,
      "▁kun": 9655,
      "ria": 9656,
      "▁pe": 9657,
      "▁behind": 9658,
      "ector": 9659,
      "eluar": 9660,
      "▁\"Sp": 9661,
      "▁Lagu": 9662,
      "▁Rout": 9663,
      "▁1997": 9664,
      "rey": 9665,
      "atas": 9666,
      "▁Lee": 9667,
      "▁nebula": 9668,
      "erus": 9669,
      "ang-": 9670,
      "amen": 9671,
      "▁Germ": 9672,
      "aca": 9673,
      "▁mew": 9674,
      "▁van": 9675,
      "▁appoint": 9676,
      "▁far": 9677,
      "lied": 9678,
      "iro": 9679,
      "abil": 9680,
      "ultan": 9681,
      "▁Perd": 9682,
      "▁Pe": 9683,
      "ification": 9684,
      "▁diman": 9685,
      "▁Meskipun": 9686,
      "▁mengak": 9687,
      "▁comment": 9688,
      "▁relationship": 9689,
      "▁orbit": 9690,
      "isional": 9691,
      "▁mut": 9692,
      "ungi": 9693,
      "▁Kristen": 9694,
      "▁clos": 9695,
      "▁case": 9696,
      "istik": 9697,
      "uy": 9698,
      "▁Book": 9699,
      "▁race": 9700,
      "▁upon": 9701,
      "▁Hel": 9702,
      "atera": 9703,
      "▁audi": 9704,
      "▁damage": 9705,
      "▁ren": 9706,
      "▁Kej": 9707,
      "▁provided": 9708,
      "▁individual": 9709,
      "▁Lab": 9710,
      "▁separ": 9711,
      "▁runs": 9712,
      "ww": 9713,
      "enda": 9714,
      "▁Canada": 9715,
      "▁rather": 9716,
      "ayaan": 9717,
      "▁Av": 9718,
      "▁meskipun": 9719,
      "▁once": 9720,
      "awab": 9721,
      "▁kawasan": 9722,
      "▁kerajaan": 9723,
      "▁originally": 9724,
      "▁McC": 9725,
      "▁worked": 9726,
      "▁Astr": 9727,
      "▁Carol": 9728,
      "ibatkan": 9729,
      "▁jauh": 9730,
      "erc": 9731,
      "abit": 9732,
      "▁membantu": 9733,
      "▁Ur": 9734,
      "▁tertent": 9735,
      "▁pract": 9736,
      "uasa": 9737,
      "▁hy": 9738,
      "ulf": 9739,
      "▁close": 9740,
      "▁profess": 9741,
      "ble": 9742,
      "▁val": 9743,
      "▁Other": 9744,
      "24": 9745,
      "span": 9746,
      "▁Budd": 9747,
      "▁Yang": 9748,
      "▁TNI": 9749,
      "aching": 9750,
      "▁fourth": 9751,
      "ores": 9752,
      "jek": 9753,
      "istiwa": 9754,
      "▁events": 9755,
      "▁warga": 9756,
      "▁Two": 9757,
      "▁office": 9758,
      "▁Inter": 9759,
      "▁Victor": 9760,
      "oper": 9761,
      "mark": 9762,
      "▁sebanyak": 9763,
      "▁makanan": 9764,
      "▁bul": 9765,
      "▁draw": 9766,
      "▁Pac": 9767,
      "▁Dr.": 9768,
      "▁+": 9769,
      "anggung": 9770,
      "▁FI": 9771,
      "▁fif": 9772,
      "▁akibat": 9773,
      "▁Scott": 9774,
      "▁Emp": 9775,
      "▁average": 9776,
      "ips": 9777,
      "enar": 9778,
      "pada": 9779,
      "▁\"Species": 9780,
      "▁Cup": 9781,
      "quadron": 9782,
      "igg": 9783,
      "inya,": 9784,
      "▁estim": 9785,
      "▁guns": 9786,
      "▁Checklist.\".": 9787,
      "▁Diptera,": 9788,
      "▁Yunani": 9789,
      "▁White": 9790,
      "▁kas": 9791,
      "iddle": 9792,
      "▁Organ": 9793,
      "▁cm": 9794,
      "osa": 9795,
      "▁pur": 9796,
      "▁Sumatera": 9797,
      "▁Terbaik": 9798,
      "araan": 9799,
      "fek": 9800,
      "▁allowed": 9801,
      "sen": 9802,
      "ella": 9803,
      "ference": 9804,
      "▁menyebut": 9805,
      "▁bill": 9806,
      "▁(I": 9807,
      "▁si": 9808,
      "▁Italia": 9809,
      "▁rail": 9810,
      "utradarai": 9811,
      "▁fell": 9812,
      "▁organisasi": 9813,
      "▁leading": 9814,
      "NA": 9815,
      "▁Championship": 9816,
      "▁pihak": 9817,
      "▁accept": 9818,
      "▁subsequ": 9819,
      "▁Kalim": 9820,
      "▁respect": 9821,
      "▁ever": 9822,
      "▁milik": 9823,
      "▁ilmu": 9824,
      "▁Daerah": 9825,
      "angga": 9826,
      "▁bank": 9827,
      "▁pengh": 9828,
      "ination": 9829,
      "win": 9830,
      "▁vill": 9831,
      "▁masing-masing": 9832,
      "▁Que": 9833,
      "▁tampil": 9834,
      "▁Academ": 9835,
      "▁Germany": 9836,
      "▁terbentuk": 9837,
      "▁Follow": 9838,
      "▁masalah": 9839,
      "▁Old": 9840,
      "▁memas": 9841,
      "▁sedikit": 9842,
      "utup": 9843,
      "▁know": 9844,
      "itte": 9845,
      "▁transport": 9846,
      "▁scored": 9847,
      "ji": 9848,
      "▁Louis": 9849,
      "▁sepanjang": 9850,
      "▁Arch": 9851,
      "▁perl": 9852,
      "▁kehidupan": 9853,
      "erang": 9854,
      "andang": 9855,
      "▁Govern": 9856,
      "ming": 9857,
      "isaran": 9858,
      "▁kesel": 9859,
      "▁ang": 9860,
      "oming": 9861,
      "▁southern": 9862,
      "lic": 9863,
      "▁saya": 9864,
      "oor": 9865,
      "▁Tex": 9866,
      "▁lain.": 9867,
      "▁melihat": 9868,
      "▁express": 9869,
      "ubernur": 9870,
      "▁Mex": 9871,
      "▁Perj": 9872,
      "mu": 9873,
      "▁belakang": 9874,
      "right": 9875,
      "▁Pap": 9876,
      "abi": 9877,
      "ids": 9878,
      "igan": 9879,
      "▁babak": 9880,
      "▁pendek": 9881,
      "▁B.": 9882,
      "▁hurricane": 9883,
      "▁45": 9884,
      "▁Cro": 9885,
      "▁Sund": 9886,
      "▁lib": 9887,
      "▁weeks": 9888,
      "▁mengikuti": 9889,
      "▁rap": 9890,
      "▁example": 9891,
      "▁prib": 9892,
      "▁peran": 9893,
      "▁Mass": 9894,
      "iko": 9895,
      "▁tahun.": 9896,
      "▁aut": 9897,
      "▁Kingdom": 9898,
      "uskupan": 9899,
      "eff": 9900,
      "▁brought": 9901,
      "▁fis": 9902,
      "▁Tor": 9903,
      "▁either": 9904,
      "iting": 9905,
      "ikel": 9906,
      "▁working": 9907,
      "▁Namun": 9908,
      "▁fund": 9909,
      "▁angk": 9910,
      "uasaan": 9911,
      "▁troops": 9912,
      "▁placed": 9913,
      "uble": 9914,
      "▁free": 9915,
      "▁European": 9916,
      "▁sungai": 9917,
      "▁Pop": 9918,
      "▁Hy": 9919,
      "▁mah": 9920,
      "▁Association": 9921,
      "▁creat": 9922,
      "ias": 9923,
      "▁generally": 9924,
      "▁serial": 9925,
      "▁business": 9926,
      "lement": 9927,
      "acara": 9928,
      "olic": 9929,
      "ipe": 9930,
      "tar": 9931,
      "▁threat": 9932,
      "▁1995": 9933,
      "▁occur": 9934,
      "▁Internasional": 9935,
      "▁wife": 9936,
      "▁menuju": 9937,
      "70": 9938,
      "imum": 9939,
      "▁Latin": 9940,
      "▁umumnya": 9941,
      "▁bir": 9942,
      "▁replaced": 9943,
      "ca": 9944,
      "▁Jim": 9945,
      "▁Club": 9946,
      "▁sour": 9947,
      "▁wanted": 9948,
      "▁permukaan": 9949,
      "hib": 9950,
      "▁Orang": 9951,
      "▁Sejarah": 9952,
      "▁kot": 9953,
      "▁quick": 9954,
      "tered": 9955,
      "acing": 9956,
      "▁norm": 9957,
      "▁Following": 9958,
      "▁critics": 9959,
      "iy": 9960,
      "a-l": 9961,
      "alion": 9962,
      "▁Mem": 9963,
      "ournal": 9964,
      "▁avail": 9965,
      "iding": 9966,
      "▁Rel": 9967,
      "AF": 9968,
      "iple": 9969,
      "▁Selatan,": 9970,
      "▁Entertain": 9971,
      "ein": 9972,
      "ogy": 9973,
      "aig": 9974,
      "▁joined": 9975,
      "▁Smith": 9976,
      "fl": 9977,
      "▁por": 9978,
      "▁army": 9979,
      "▁stat": 9980,
      "▁sesuai": 9981,
      "▁Cong": 9982,
      "▁sequ": 9983,
      "olusi": 9984,
      "ression": 9985,
      "▁kor": 9986,
      "78": 9987,
      "entang": 9988,
      "arakan": 9989,
      "akes": 9990,
      "abar": 9991,
      "▁Festival": 9992,
      "▁minor": 9993,
      "▁Baru": 9994,
      "▁hours": 9995,
      "▁Barat,": 9996,
      "▁plann": 9997,
      "▁Super": 9998,
      "▁ill": 9999,
      "▁unc": 10000,
      "▁Zh": 10001,
      "emuan": 10002,
      "▁jam": 10003,
      "▁bangunan": 10004,
      "▁Eks": 10005,
      "▁pemimpin": 10006,
      "asi.": 10007,
      "▁mengk": 10008,
      "▁inn": 10009,
      "orps": 10010,
      "▁Planet": 10011,
      "▁Tour": 10012,
      "▁(L": 10013,
      "▁Tekn": 10014,
      "▁finished": 10015,
      "▁membawa": 10016,
      "▁mampu": 10017,
      "icial": 10018,
      "onic": 10019,
      "▁foc": 10020,
      "▁melip": 10021,
      "▁Wind": 10022,
      "▁pil": 10023,
      "▁towards": 10024,
      "es,": 10025,
      "▁recogn": 10026,
      "awai": 10027,
      "▁Let": 10028,
      "-N": 10029,
      "▁highway": 10030,
      "face": 10031,
      "orong": 10032,
      "▁Komp": 10033,
      "▁Jalan": 10034,
      "▁(R": 10035,
      "▁mph": 10036,
      "▁extr": 10037,
      "engaruh": 10038,
      "▁econom": 10039,
      "▁Virginia": 10040,
      "▁Bup": 10041,
      "▁hard": 10042,
      "▁1996": 10043,
      "▁Route": 10044,
      "▁Just": 10045,
      "▁daripada": 10046,
      "erak": 10047,
      "oms": 10048,
      "▁victory": 10049,
      "▁Entertainment": 10050,
      "▁som": 10051,
      "ecutive": 10052,
      "aliz": 10053,
      "▁Johnson": 10054,
      "▁length": 10055,
      "▁Force": 10056,
      "▁mantan": 10057,
      "leks": 10058,
      "uaraan": 10059,
      "▁langu": 10060,
      "▁Tai": 10061,
      "icles": 10062,
      "▁ruang": 10063,
      "osis": 10064,
      "fall": 10065,
      ".com": 10066,
      "▁Despite": 10067,
      "obal": 10068,
      "▁tokoh": 10069,
      "▁Keh": 10070,
      "▁conduc": 10071,
      "merc": 10072,
      "▁Ham": 10073,
      "▁dirinya": 10074,
      "icket": 10075,
      "west": 10076,
      "▁Gal": 10077,
      "▁Sat": 10078,
      "yek": 10079,
      "▁putri": 10080,
      "▁prep": 10081,
      "▁Muslim": 10082,
      "antung": 10083,
      "▁meraih": 10084,
      "och": 10085,
      "▁mother": 10086,
      "▁believed": 10087,
      "▁kond": 10088,
      "▁football": 10089,
      "▁church": 10090,
      "ambarkan": 10091,
      "▁seri": 10092,
      "uture": 10093,
      "andi": 10094,
      "▁mesin": 10095,
      "▁Bab": 10096,
      "▁Serv": 10097,
      "▁Arm": 10098,
      "▁perh": 10099,
      "▁scene": 10100,
      "AT": 10101,
      "▁Form": 10102,
      "lahraga": 10103,
      "egr": 10104,
      "▁gar": 10105,
      "▁1994": 10106,
      "BS": 10107,
      "ening": 10108,
      "▁employ": 10109,
      "inese": 10110,
      "▁featured": 10111,
      "▁NY": 10112,
      "sa": 10113,
      "▁diadakan": 10114,
      "▁usia": 10115,
      "▁Chic": 10116,
      "▁bahkan": 10117,
      "▁indic": 10118,
      "▁Por": 10119,
      "augh": 10120,
      "▁kegiatan": 10121,
      "▁regular": 10122,
      "▁lingkungan": 10123,
      "atuh": 10124,
      "▁interest": 10125,
      "▁involved": 10126,
      "ohon": 10127,
      "umer": 10128,
      "▁pember": 10129,
      "▁den": 10130,
      "▁karier": 10131,
      "▁awalnya": 10132,
      "▁Sed": 10133,
      "den": 10134,
      "▁drop": 10135,
      "▁Afrika": 10136,
      "▁adanya": 10137,
      "▁Yes": 10138,
      "impi": 10139,
      "▁zaman": 10140,
      "ekaisaran": 10141,
      "▁Han": 10142,
      "▁designed": 10143,
      "▁Kur": 10144,
      "▁abs": 10145,
      "▁tujuan": 10146,
      "▁Muhammad": 10147,
      "▁training": 10148,
      "erj": 10149,
      "▁ingin": 10150,
      "▁Pre": 10151,
      "▁Long": 10152,
      "▁soon": 10153,
      "▁App": 10154,
      "▁meliputi": 10155,
      "ero": 10156,
      "▁distrib": 10157,
      "▁sesuatu": 10158,
      "▁penghargaan": 10159,
      "oke": 10160,
      "anjung": 10161,
      "orary": 10162,
      "ux": 10163,
      "▁contract": 10164,
      "▁Martin": 10165,
      "▁prec": 10166,
      "igr": 10167,
      "ur,": 10168,
      "▁piec": 10169,
      "isata": 10170,
      "▁exist": 10171,
      "▁memut": 10172,
      "▁Center": 10173,
      "uke": 10174,
      "▁key": 10175,
      "▁cab": 10176,
      "▁tercatat": 10177,
      "▁penggunaan": 10178,
      "▁1992": 10179,
      "chiev": 10180,
      "imana": 10181,
      "erbangan": 10182,
      "omat": 10183,
      "▁Indonesia,": 10184,
      "oks": 10185,
      "▁permainan": 10186,
      "adar": 10187,
      "▁party": 10188,
      "▁era": 10189,
      "▁Utara,": 10190,
      "ully": 10191,
      "ai,": 10192,
      "▁300": 10193,
      "▁los": 10194,
      "▁earlier": 10195,
      "-P": 10196,
      "▁Perusahaan": 10197,
      "▁ended": 10198,
      "▁Selama": 10199,
      "▁daftar": 10200,
      "▁nilai": 10201,
      "▁Land": 10202,
      "ental": 10203,
      "cent": 10204,
      "▁Saint": 10205,
      "alahkan": 10206,
      "▁keturunan": 10207,
      "upiter": 10208,
      "▁Hung": 10209,
      "-d": 10210,
      "▁court": 10211,
      "▁Edward": 10212,
      "impinan": 10213,
      "action": 10214,
      "▁account": 10215,
      "▁hampir": 10216,
      "erian": 10217,
      "▁particip": 10218,
      "▁largest": 10219,
      "▁transfer": 10220,
      "quare": 10221,
      "laim": 10222,
      "MS": 10223,
      "▁test": 10224,
      "▁Over": 10225,
      "▁interview": 10226,
      "ections": 10227,
      "▁anal": 10228,
      "▁row": 10229,
      "▁Bus": 10230,
      "▁Pusat": 10231,
      "elitian": 10232,
      "▁contrib": 10233,
      "ensis": 10234,
      "▁gas": 10235,
      "▁cur": 10236,
      "▁Anggota": 10237,
      "▁\"A": 10238,
      "anyakan": 10239,
      "▁(J": 10240,
      "▁website": 10241,
      "▁president": 10242,
      "anian": 10243,
      "▁alam": 10244,
      "▁berlangsung": 10245,
      "▁Tro": 10246,
      "▁possible": 10247,
      "▁opening": 10248,
      "▁menampilkan": 10249,
      "▁gag": 10250,
      "▁Academy": 10251,
      "▁75": 10252,
      "▁international": 10253,
      "egang": 10254,
      "la": 10255,
      "ensus": 10256,
      "▁regard": 10257,
      "▁tangan": 10258,
      "▁initially": 10259,
      "onstr": 10260,
      "aisar": 10261,
      "▁diperk": 10262,
      "▁Chinese": 10263,
      "▁Tw": 10264,
      "▁1993": 10265,
      "yan": 10266,
      "▁Malaysia": 10267,
      "▁Asteroid": 10268,
      "▁36": 10269,
      "▁disp": 10270,
      "▁Navy": 10271,
      "▁perjalan": 10272,
      "ittee": 10273,
      "elaj": 10274,
      "▁33": 10275,
      "ette": 10276,
      "▁Coll": 10277,
      "unis": 10278,
      "▁kend": 10279,
      "▁northern": 10280,
      "orial": 10281,
      "▁educ": 10282,
      "▁reduc": 10283,
      "▁pec": 10284,
      "ya,": 10285,
      "▁du": 10286,
      "▁aj": 10287,
      "▁Kemudian": 10288,
      "▁Arg": 10289,
      "▁passed": 10290,
      "▁enam": 10291,
      "▁elements": 10292,
      "▁beb": 10293,
      "wakil": 10294,
      "▁must": 10295,
      "▁particularly": 10296,
      "▁liter": 10297,
      "▁stop": 10298,
      "ht": 10299,
      "ship": 10300,
      "▁Kenn": 10301,
      "▁jabatan": 10302,
      "uruan": 10303,
      "▁displ": 10304,
      "rest": 10305,
      "▁Su": 10306,
      "▁sisi": 10307,
      "usaha": 10308,
      "▁P.": 10309,
      "ordin": 10310,
      "▁keep": 10311,
      "▁Kepulauan": 10312,
      "▁prem": 10313,
      "andung": 10314,
      "90": 10315,
      "▁shot": 10316,
      "▁remov": 10317,
      "▁whe": 10318,
      "ng": 10319,
      "adu": 10320,
      "▁jiwa": 10321,
      "▁perubahan": 10322,
      "erl": 10323,
      "▁disutradarai": 10324,
      "▁Prot": 10325,
      "▁biasa": 10326,
      "▁units": 10327,
      "▁hig": 10328,
      "▁central": 10329,
      "▁priv": 10330,
      "▁Simp": 10331,
      "ership": 10332,
      "▁Bow": 10333,
      "▁Wood": 10334,
      "▁Western": 10335,
      "▁Girl": 10336,
      "▁2.": 10337,
      "▁Tenggara": 10338,
      "agement": 10339,
      "antry": 10340,
      "raz": 10341,
      "▁available": 10342,
      "▁laki-laki": 10343,
      "▁decl": 10344,
      "ising": 10345,
      "▁techn": 10346,
      "iptakan": 10347,
      "▁saying": 10348,
      "▁datang": 10349,
      "▁Paris": 10350,
      "▁Jo": 10351,
      "▁kekuasaan": 10352,
      "12": 10353,
      "▁mereka,": 10354,
      "▁forced": 10355,
      "▁required": 10356,
      "▁Sementara": 10357,
      "▁taking": 10358,
      "▁(18": 10359,
      "-2": 10360,
      "▁How": 10361,
      "▁Kalimantan": 10362,
      "▁percent": 10363,
      "▁Angeles": 10364,
      "▁fall": 10365,
      "▁Uni": 10366,
      "▁pay": 10367,
      "▁lyr": 10368,
      "▁berupa": 10369,
      "apkan": 10370,
      "▁weak": 10371,
      "olak": 10372,
      "▁jaringan": 10373,
      "▁Most": 10374,
      "▁demik": 10375,
      "▁ordered": 10376,
      "▁Gil": 10377,
      "▁Van": 10378,
      "▁kekuatan": 10379,
      "▁Joseph": 10380,
      "▁\"P": 10381,
      "▁emb": 10382,
      "▁\"B": 10383,
      "▁184": 10384,
      "atangan": 10385,
      "lying": 10386,
      "▁Oly": 10387,
      "▁surat": 10388,
      "▁goal": 10389,
      "▁lab": 10390,
      "▁instr": 10391,
      "▁Not": 10392,
      "ston": 10393,
      "▁meas": 10394,
      "aded": 10395,
      "▁Id": 10396,
      "▁Francis": 10397,
      "▁Act": 10398,
      "▁highest": 10399,
      "▁Sejak": 10400,
      "▁Cre": 10401,
      "▁Out": 10402,
      "▁Rail": 10403,
      "oring": 10404,
      "-0": 10405,
      "▁um": 10406,
      "▁diberi": 10407,
      "▁wid": 10408,
      "elled": 10409,
      "▁bird": 10410,
      "ahanan": 10411,
      "har": 10412,
      "▁director": 10413,
      "▁(H": 10414,
      "▁minutes": 10415,
      "▁Britain": 10416,
      "▁deg": 10417,
      "▁That": 10418,
      "atuan": 10419,
      "▁according": 10420,
      "▁deb": 10421,
      "rief": 10422,
      "▁|-": 10423,
      "ulus": 10424,
      "▁apa": 10425,
      "VD": 10426,
      "▁attempt": 10427,
      "asif": 10428,
      "▁mir": 10429,
      "▁180": 10430,
      "▁Portug": 10431,
      "-j": 10432,
      "onel": 10433,
      "▁Pemeran": 10434,
      "RI": 10435,
      "▁Max": 10436,
      "amer": 10437,
      "▁directed": 10438,
      "▁Olymp": 10439,
      "▁increased": 10440,
      "▁praised": 10441,
      "▁selalu": 10442,
      "▁183": 10443,
      "▁don": 10444,
      "▁hop": 10445,
      "▁Ng": 10446,
      "ttp": 10447,
      "▁Jepang.": 10448,
      "emu": 10449,
      "▁social": 10450,
      "▁buah": 10451,
      "▁90": 10452,
      "icted": 10453,
      "▁spons": 10454,
      "▁asp": 10455,
      "▁Ath": 10456,
      "▁turned": 10457,
      "ites": 10458,
      "▁£": 10459,
      "pec": 10460,
      "▁signed": 10461,
      "una": 10462,
      "//": 10463,
      "▁Timur,": 10464,
      "▁Wakil": 10465,
      "▁park": 10466,
      "▁research": 10467,
      "ya.": 10468,
      "▁Ada": 10469,
      "ecess": 10470,
      "▁pertamanya": 10471,
      "▁treat": 10472,
      "▁phys": 10473,
      "anjutkan": 10474,
      "▁gamb": 10475,
      "▁SMA": 10476,
      "://": 10477,
      "▁berakhir": 10478,
      "▁Dat": 10479,
      "▁enough": 10480,
      "▁Bas": 10481,
      "BA": 10482,
      "▁informasi": 10483,
      "▁defeat": 10484,
      "▁quest": 10485,
      "▁base": 10486,
      "▁move": 10487,
      "▁Billboard": 10488,
      "▁ot": 10489,
      "▁appearance": 10490,
      "▁change": 10491,
      "ahl": 10492,
      "▁1980": 10493,
      "▁Town": 10494,
      "▁manus": 10495,
      "▁travel": 10496,
      "angkap": 10497,
      "▁putih": 10498,
      "▁Mand": 10499,
      "▁Filip": 10500,
      "▁style=\"": 10501,
      "▁speed": 10502,
      "▁dimana": 10503,
      "▁ik": 10504,
      "▁Camb": 10505,
      "orro": 10506,
      "▁mendukung": 10507,
      "▁tank": 10508,
      "▁evidence": 10509,
      "yak": 10510,
      "itual": 10511,
      "▁strateg": 10512,
      "▁additional": 10513,
      "▁quar": 10514,
      "bar": 10515,
      "enangan": 10516,
      "▁mean": 10517,
      "ees": 10518,
      "▁mendirikan": 10519,
      "▁altern": 10520,
      "▁winds": 10521,
      "▁Ram": 10522,
      "rovers": 10523,
      "▁Catatan": 10524,
      "agaimana": 10525,
      "inan": 10526,
      "▁Bac": 10527,
      "▁Mot": 10528,
      "▁?": 10529,
      "▁kuat": 10530,
      "▁Banj": 10531,
      "▁previously": 10532,
      "▁Manc": 10533,
      "intangi": 10534,
      "▁Ox": 10535,
      "ir,": 10536,
      "▁Rus": 10537,
      "▁Pemerintah": 10538,
      "atory": 10539,
      "heast": 10540,
      "▁study": 10541,
      "andingkan": 10542,
      "▁1991": 10543,
      "a-laba": 10544,
      "▁depan": 10545,
      "▁daya": 10546,
[...]
